{
  "version": "1.0",
  "truncation": null,
  "padding": {
    "strategy": "BatchLongest",
    "direction": "Right",
    "pad_to_multiple_of": null,
    "pad_id": 0,
    "pad_type_id": 0,
    "pad_token": "[PAD]"
  },
  "added_tokens": [
    {
      "id": 0,
      "content": "[PAD]",
      "single_word": false,
      "lstrip": false,
      "rstrip": false,
      "normalized": false,
      "special": true
    },
    {
      "id": 1,
      "content": "<s>",
      "single_word": false,
      "lstrip": false,
      "rstrip": false,
      "normalized": false,
      "special": true
    },
    {
      "id": 2,
      "content": "</s>",
      "single_word": false,
      "lstrip": false,
      "rstrip": false,
      "normalized": false,
      "special": true
    },
    {
      "id": 45999,
      "content": "<unk>",
      "single_word": false,
      "lstrip": false,
      "rstrip": false,
      "normalized": false,
      "special": true
    }
  ],
  "normalizer": {
    "type": "Sequence",
    "normalizers": [
      {
        "type": "NFD"
      },
      {
        "type": "StripAccents"
      }
    ]
  },
  "pre_tokenizer": {
    "type": "Sequence",
    "pretokenizers": [
      {
        "type": "Whitespace"
      },
      {
        "type": "Punctuation",
        "behavior": "Isolated"
      },
      {
        "type": "Digits",
        "individual_digits": true
      },
      {
        "type": "UnicodeScripts"
      },
      {
        "type": "ByteLevel",
        "add_prefix_space": true,
        "trim_offsets": true,
        "use_regex": false
      }
    ]
  },
  "post_processor": {
    "type": "ByteLevel",
    "add_prefix_space": true,
    "trim_offsets": true,
    "use_regex": true
  },
  "decoder": {
    "type": "ByteLevel",
    "add_prefix_space": true,
    "trim_offsets": true,
    "use_regex": true
  },
  "model": {
    "type": "BPE",
    "dropout": null,
    "unk_token": null,
    "continuing_subword_prefix": null,
    "end_of_word_suffix": null,
    "fuse_unk": false,
    "byte_fallback": false,
    "vocab": {
      "[PAD]": 0,
      "<s>": 1,
      "</s>": 2,
      "!": 3,
      "\"": 4,
      "#": 5,
      "$": 6,
      "%": 7,
      "&": 8,
      "'": 9,
      "(": 10,
      ")": 11,
      "*": 12,
      "+": 13,
      ",": 14,
      "-": 15,
      ".": 16,
      "/": 17,
      "0": 18,
      "1": 19,
      "2": 20,
      "3": 21,
      "4": 22,
      "5": 23,
      "6": 24,
      "7": 25,
      "8": 26,
      "9": 27,
      ":": 28,
      ";": 29,
      "<": 30,
      "=": 31,
      ">": 32,
      "?": 33,
      "@": 34,
      "A": 35,
      "B": 36,
      "C": 37,
      "D": 38,
      "E": 39,
      "F": 40,
      "G": 41,
      "H": 42,
      "I": 43,
      "J": 44,
      "K": 45,
      "L": 46,
      "M": 47,
      "N": 48,
      "O": 49,
      "P": 50,
      "Q": 51,
      "R": 52,
      "S": 53,
      "T": 54,
      "U": 55,
      "V": 56,
      "W": 57,
      "X": 58,
      "Y": 59,
      "Z": 60,
      "[": 61,
      "\\": 62,
      "]": 63,
      "^": 64,
      "_": 65,
      "`": 66,
      "a": 67,
      "b": 68,
      "c": 69,
      "d": 70,
      "e": 71,
      "f": 72,
      "g": 73,
      "h": 74,
      "i": 75,
      "j": 76,
      "k": 77,
      "l": 78,
      "m": 79,
      "n": 80,
      "o": 81,
      "p": 82,
      "q": 83,
      "r": 84,
      "s": 85,
      "t": 86,
      "u": 87,
      "v": 88,
      "w": 89,
      "x": 90,
      "y": 91,
      "z": 92,
      "{": 93,
      "|": 94,
      "}": 95,
      "~": 96,
      "¡": 97,
      "¢": 98,
      "£": 99,
      "¤": 100,
      "¥": 101,
      "¦": 102,
      "§": 103,
      "¨": 104,
      "©": 105,
      "ª": 106,
      "«": 107,
      "¬": 108,
      "®": 109,
      "¯": 110,
      "°": 111,
      "±": 112,
      "²": 113,
      "³": 114,
      "´": 115,
      "µ": 116,
      "¶": 117,
      "·": 118,
      "¸": 119,
      "¹": 120,
      "º": 121,
      "»": 122,
      "¼": 123,
      "½": 124,
      "¾": 125,
      "¿": 126,
      "Â": 127,
      "Ã": 128,
      "Ä": 129,
      "Å": 130,
      "Æ": 131,
      "Ç": 132,
      "È": 133,
      "É": 134,
      "Ê": 135,
      "Ë": 136,
      "Í": 137,
      "Î": 138,
      "Ï": 139,
      "Ð": 140,
      "Ñ": 141,
      "Ò": 142,
      "Ó": 143,
      "Ô": 144,
      "Õ": 145,
      "Ö": 146,
      "×": 147,
      "Ø": 148,
      "Ù": 149,
      "Ú": 150,
      "Û": 151,
      "Ü": 152,
      "Ý": 153,
      "Þ": 154,
      "ß": 155,
      "à": 156,
      "á": 157,
      "â": 158,
      "ã": 159,
      "ä": 160,
      "å": 161,
      "æ": 162,
      "ç": 163,
      "è": 164,
      "é": 165,
      "ê": 166,
      "ï": 167,
      "ð": 168,
      "Ġ": 169,
      "Ģ": 170,
      "ģ": 171,
      "Ĥ": 172,
      "ĥ": 173,
      "Ħ": 174,
      "ħ": 175,
      "Ĩ": 176,
      "ĩ": 177,
      "Ī": 178,
      "ī": 179,
      "Ĭ": 180,
      "ĭ": 181,
      "Į": 182,
      "į": 183,
      "İ": 184,
      "ı": 185,
      "Ĳ": 186,
      "ĳ": 187,
      "Ĵ": 188,
      "ĵ": 189,
      "Ķ": 190,
      "ķ": 191,
      "ĸ": 192,
      "Ĺ": 193,
      "ĺ": 194,
      "Ļ": 195,
      "ļ": 196,
      "Ľ": 197,
      "ľ": 198,
      "Ŀ": 199,
      "ŀ": 200,
      "Ł": 201,
      "ł": 202,
      "Ń": 203,
      "Ġå": 204,
      "Ġæ": 205,
      "Ġä": 206,
      "Ġç": 207,
      "Ġè": 208,
      "Ġï": 209,
      "Ġï¼": 210,
      "Ġï¼Į": 211,
      "Ġä¸": 212,
      "Ġçļ": 213,
      "Ġé": 214,
      "ĠçļĦ": 215,
      "Ġã": 216,
      "ĠãĢ": 217,
      "ä¸": 218,
      "Ġäº": 219,
      "ĠãĢĤ": 220,
      "Ġè¿": 221,
      "ĺ¯": 222,
      "Ġåı": 223,
      "Ġæľ": 224,
      "äº": 225,
      "Ġä¸Ģ": 226,
      "Ġä»": 227,
      "ä»": 228,
      "Ġä¸į": 229,
      "æľ": 230,
      "Ġå¤": 231,
      "ĠäºĨ": 232,
      "Ġå°": 233,
      "ĠæĪ": 234,
      "å¤": 235,
      "ĠåĲ": 236,
      "Ġåľ": 237,
      "Ġåħ": 238,
      "Ġä¹": 239,
      "å®": 240,
      "Ġâ": 241,
      "Ġä½": 242,
      "ĠâĢ": 243,
      "Ġæĺ¯": 244,
      "åĪ": 245,
      "Ġt": 246,
      "åı": 247,
      "ĥ½": 248,
      "åħ": 249,
      "Ġ0": 250,
      "Ġåľ¨": 251,
      "æĺ¯": 252,
      "ĠåĪ": 253,
      "Ġ1": 254,
      "ĠæĹ": 255,
      "Ġå®": 256,
      "åĬ": 257,
      "Ġå¾": 258,
      "åĲ": 259,
      "ĠæĪĳ": 260,
      "ĠãĢģ": 261,
      "ĠçĶ": 262,
      "Ġè¿Ļ": 263,
      "Ġa": 264,
      "Ġæľī": 265,
      "åŃ": 266,
      "in": 267,
      "ä¹": 268,
      "Ġ.": 269,
      "Ġæī": 270,
      "he": 271,
      "Ġå¹": 272,
      "Ġç»": 273,
      "ä½": 274,
      "æĿ": 275,
      "Ġè¯": 276,
      "è¯": 277,
      "çĶ": 278,
      "ĠåĴ": 279,
      "ĠåĽ": 280,
      "Ġ2": 281,
      "Ġå¥": 282,
      "ä¸ª": 283,
      "Ġåį": 284,
      "Ġå°±": 285,
      "åľ": 286,
      "æĸ": 287,
      "ç»": 288,
      "åĽ": 289,
      "ĠåĴĮ": 290,
      "on": 291,
      "Ġè®": 292,
      "åº": 293,
      "¦ģ": 294,
      "äºº": 295,
      "å¸": 296,
      "Ġå¾Ī": 297,
      "Ġä¹Ł": 298,
      "Ġåĩ": 299,
      "ä¼": 300,
      "è¿": 301,
      "Ġä¸Ń": 302,
      "re": 303,
      "Ġ,": 304,
      "Ġä¼": 305,
      "ĠèĢ": 306,
      "éĩ": 307,
      "Ġå¤§": 308,
      "æľī": 309,
      "Ġthe": 310,
      "Ġæ²": 311,
      "Ġæĸ": 312,
      "Ġçľ": 313,
      "Ġè¿ĺ": 314,
      "ĠåĨ": 315,
      "åį": 316,
      "Ġä¸Ĭ": 317,
      "Ġå¯": 318,
      "Ġåİ": 319,
      "Ġæ¯": 320,
      "Ġå·": 321,
      "Ġs": 322,
      "ĠæĿ": 323,
      "Ġäºº": 324,
      "æĹ": 325,
      "Ġéĥ½": 326,
      "ĠéĢ": 327,
      "ĠâĢľ": 328,
      "æł": 329,
      "å¾": 330,
      "er": 331,
      "Ġåı¯": 332,
      "ĠâĢĿ": 333,
      "Ġå¼": 334,
      "è®": 335,
      "Ġéĩ": 336,
      "å¥": 337,
      "ĠæĬ": 338,
      "at": 339,
      "Ġèĩ": 340,
      "å·": 341,
      "Ġo": 342,
      "è§": 343,
      "å¹": 344,
      "è¡": 345,
      "æĿ¥": 346,
      "ĠçĽ": 347,
      "å°": 348,
      "åĮ": 349,
      "éĹ": 350,
      "æ¬": 351,
      "en": 352,
      "Ĥ¹": 353,
      "ä»¬": 354,
      "Ġä»ĸ": 355,
      "å¼": 356,
      "Ŀ¢": 357,
      "æŀ": 358,
      "çī": 359,
      "åĳ": 360,
      "èĢ": 361,
      "åŃĲ": 362,
      "Ġ3": 363,
      "ç§": 364,
      "æĪ": 365,
      "ä¸º": 366,
      "Ġçİ": 367,
      "Ġå¸": 368,
      "Ġc": 369,
      "ĠæĹ¶": 370,
      "Ġ5": 371,
      "Ġå¯¹": 372,
      "ĠæĶ": 373,
      "µ·": 374,
      "åĪ°": 375,
      "ä»¥": 376,
      "Ġå½": 377,
      "åĽ½": 378,
      "Ġæķ": 379,
      "Ġè§": 380,
      "Ġæ²¡": 381,
      "è´": 382,
      "ĠåĬ": 383,
      "Ġä¸º": 384,
      "å®¶": 385,
      "ĠåŃ": 386,
      "īį": 387,
      "Ġåĳ": 388,
      "Ġï¼ļ": 389,
      "æĢ": 390,
      "it": 391,
      "Ġèĩª": 392,
      "åĩ": 393,
      "éģ": 394,
      "ĠæĢ": 395,
      "è¾": 396,
      "Ġè¡": 397,
      "Ġå°ı": 398,
      "å±": 399,
      "Ġw": 400,
      "Ġp": 401,
      "an": 402,
      "or": 403,
      "Ġæİ": 404,
      "çĽ": 405,
      "å¿": 406,
      "ä¹Ī": 407,
      "ĠæŃ": 408,
      "çİ": 409,
      "çº": 410,
      "Ġä½Ĩ": 411,
      "åĨ": 412,
      "ä¼ļ": 413,
      "es": 414,
      "Ġå¹´": 415,
      "Ġä»¥": 416,
      "ĠéĤ": 417,
      "¦Ĥ": 418,
      "ĠæľĢ": 419,
      "æ°": 420,
      "Ġ9": 421,
      "Ġåģ": 422,
      "Ġæĥ": 423,
      "æ³": 424,
      "å¤ļ": 425,
      "Ġåıĳ": 426,
      "Ġå¥½": 427,
      "Ġ4": 428,
      "èĥ½": 429,
      "çĶŁ": 430,
      "«ĺ": 431,
      "éĿ¢": 432,
      "è¦ģ": 433,
      "Ġçľĭ": 434,
      "æĺ": 435,
      "éĢ": 436,
      "äºİ": 437,
      "al": 438,
      "ed": 439,
      "ĠåĮ": 440,
      "Ġæĭ": 441,
      "is": 442,
      "Ġof": 443,
      "éģĵ": 444,
      "Ġè´": 445,
      "ä¸Ģ": 446,
      "Ġçī": 447,
      "åĵ": 448,
      "éĻ": 449,
      "å¤§": 450,
      "Ħ¶": 451,
      "Ġåĩº": 452,
      "Ġä½ł": 453,
      "ion": 454,
      "ĠçŃ": 455,
      "æŃ": 456,
      "Ġè¯´": 457,
      "nd": 458,
      "Ġf": 459,
      "å¥½": 460,
      "Ġb": 461,
      "çĲ": 462,
      "Ġä¸Ģä¸ª": 463,
      "Ġ8": 464,
      "ĠéĤ£": 465,
      "ĠèĢĮ": 466,
      "ä¸ļ": 467,
      "Ġè¦ģ": 468,
      "Ġin": 469,
      "è¡Į": 470,
      "ĠæĽ": 471,
      "Ġ6": 472,
      "å¹´": 473,
      "ĠæĦ": 474,
      "åİ": 475,
      "Ġèµ": 476,
      "Ġåº": 477,
      "åĲİ": 478,
      "æĹ¶": 479,
      "ing": 480,
      "Ġæ¯Ķ": 481,
      "ĠåĪ°": 482,
      "Ġå¿": 483,
      "ĠæĮ": 484,
      "æī": 485,
      "Ġä¸ĭ": 486,
      "Ġä¹ĭ": 487,
      "Ġå¤ļ": 488,
      "Ġm": 489,
      "ĠåĲĥ": 490,
      "èĢħ": 491,
      "Ġä¿": 492,
      "å¾Ĺ": 493,
      "æķ": 494,
      "ĠæĿ¥": 495,
      "èĤ": 496,
      "ar": 497,
      "å¯": 498,
      "Ġä¸ª": 499,
      "Ġåİ»": 500,
      "ĿĢ": 501,
      "Ġåħ¶": 502,
      "ä¸Ĭ": 503,
      "è¿ĩ": 504,
      "Ġè¿ĩ": 505,
      "Ġåľ°": 506,
      "çĤ¹": 507,
      "ĥ¨": 508,
      "Ł¥": 509,
      "çĶ¨": 510,
      "ĠéĹ": 511,
      "Ġç§": 512,
      "æĥ": 513,
      "ä¸į": 514,
      "ou": 515,
      "ĠåĲİ": 516,
      "åŃ¦": 517,
      "é¢": 518,
      "Ġæ°": 519,
      "åĢ": 520,
      "æ¬¡": 521,
      "Ġto": 522,
      "æĦ": 523,
      "Ġåı¯ä»¥": 524,
      "Ġand": 525,
      "Ġ-": 526,
      "Ġæĺ": 527,
      "Ġå¼Ģ": 528,
      "ic": 529,
      "Ġ7": 530,
      "å¤©": 531,
      "åľ¨": 532,
      "éĶ": 533,
      "Ġçº": 534,
      "è½": 535,
      "Ġä¼ļ": 536,
      "åĬ¨": 537,
      "Ġd": 538,
      "ķ¿": 539,
      "éĹ´": 540,
      "æĭ": 541,
      "¾İ": 542,
      "ĠæĪĲ": 543,
      "æŀľ": 544,
      "çĦ¶": 545,
      "ĠçŃī": 546,
      "åº¦": 547,
      "Ġè½": 548,
      "Ġé«ĺ": 549,
      "Ġç¬": 550,
      "ĠæīĢ": 551,
      "æ±": 552,
      "Ġæ¸": 553,
      "ç§į": 554,
      "Ġå¦Ĥ": 555,
      "èµ": 556,
      "Ġï¼Ī": 557,
      "Ġ~": 558,
      "äºĽ": 559,
      "åĬĽ": 560,
      "ĠéĻ": 561,
      "ĠæĹ¥": 562,
      "Ġï¼ī": 563,
      "Ġåĵ": 564,
      "å½": 565,
      "Ġä¸İ": 566,
      "ç«": 567,
      "Ġè¾": 568,
      "Ġè¢": 569,
      "ĠåĪĨ": 570,
      "Ġè¿Ľ": 571,
      "éĩĮ": 572,
      "æĸ¹": 573,
      "Ġåķ": 574,
      "å®ļ": 575,
      "Ġæł": 576,
      "Ġå±": 577,
      "Ġæı": 578,
      "åľº": 579,
      "Ġèĥ½": 580,
      "Ġåıª": 581,
      "Ġé¢": 582,
      "Ġè·": 583,
      "æľ¬": 584,
      "ä½ľ": 585,
      "Ġå½ĵ": 586,
      "æł·": 587,
      "ĠåŁ": 588,
      "Ġæĸ°": 589,
      "ĠåĽł": 590,
      "åĩº": 591,
      "¥¿": 592,
      "Ġè¢«": 593,
      "ĠçĶ¨": 594,
      "å·±": 595,
      "ent": 596,
      "ro": 597,
      "çĲĨ": 598,
      "Ġè¶": 599,
      "ĠéĿ": 600,
      "çİ°": 601,
      "æ´": 602,
      "Ġä»İ": 603,
      "ĠæĽ´": 604,
      "le": 605,
      "Ġæ²¡æľī": 606,
      "Ġä¸¤": 607,
      "æ³ķ": 608,
      "Ġåħ¬": 609,
      "ĠåĽ½": 610,
      "Ġä¸»": 611,
      "èī": 612,
      "ĠæľĪ": 613,
      "Ġçİ°": 614,
      "ĠæĪĳä»¬": 615,
      "éĺ": 616,
      "æĢ§": 617,
      "ä¸ĭ": 618,
      "æ²": 619,
      "ĠèĤ": 620,
      "æĬ": 621,
      "ĠçĶŁ": 622,
      "ç½": 623,
      "Ġh": 624,
      "Ġèĩªå·±": 625,
      "Ġå°±æĺ¯": 626,
      "Ġæ³": 627,
      "å¿ĥ": 628,
      "åĬ¡": 629,
      "Ġåģļ": 630,
      "Ġå¹¶": 631,
      "ä¸Ń": 632,
      "as": 633,
      "å§": 634,
      "åĳĺ": 635,
      "åĵģ": 636,
      "Ġéĺ": 637,
      "Ġå°Ĩ": 638,
      "Ġç»ı": 639,
      "Ġæĥ³": 640,
      "Ġåīį": 641,
      "Ġå®¶": 642,
      "Ġre": 643,
      "çľ": 644,
      "Ġï¼Ł": 645,
      "Ġä¾": 646,
      "æµ": 647,
      "èĩ": 648,
      "ĠåĲĮ": 649,
      "ä½ĵ": 650,
      "ĠåŃ¦": 651,
      "Ġç¬¬": 652,
      "ĠçĤ¹": 653,
      "éĥ¨": 654,
      "ĠéĩĮ": 655,
      "ĠæĦŁ": 656,
      "Ģä¹Ī": 657,
      "Ġåĸ": 658,
      "åīį": 659,
      "Ļ½": 660,
      "åĮĸ": 661,
      "ĠçĽ¸": 662,
      "ĠæıĲ": 663,
      "å¸¸": 664,
      "ĠèĢģ": 665,
      "éĩı": 666,
      "º«": 667,
      "ä¿": 668,
      "³»": 669,
      "Ġé£": 670,
      "Ġæĸ¹": 671,
      "ıľ": 672,
      "Ġåħ¨": 673,
      "Ġéļ": 674,
      "Ġï¼ģ": 675,
      "åľ°": 676,
      "Ġå·¥": 677,
      "Ġé¦": 678,
      "æĶ": 679,
      "Ġç®": 680,
      "ĠæĹł": 681,
      "ĠçĪ": 682,
      "æľº": 683,
      "Ġç¾İ": 684,
      "Ġå·²": 685,
      "åĪĨ": 686,
      "Ġå¾Ĺ": 687,
      "ĠæĻ": 688,
      "ĠçľŁ": 689,
      "å®ŀ": 690,
      "ç®": 691,
      "ç»ı": 692,
      "ä¾": 693,
      "»º": 694,
      "Ġä¸ī": 695,
      "èĪ": 696,
      "æİ": 697,
      "åĢĻ": 698,
      "Ġè¿Ļä¸ª": 699,
      "ä½į": 700,
      "Ġè°": 701,
      "Ġå®ŀ": 702,
      "Ġ)": 703,
      "Ġä½ľ": 704,
      "æĪĲ": 705,
      "Ġ(": 706,
      "Ġçĥ": 707,
      "Ġæµ": 708,
      "è¯´": 709,
      "é¢ĺ": 710,
      "ĠA": 711,
      "ation": 712,
      "Ġè®©": 713,
      "Ġç½": 714,
      "ĠéĹ®": 715,
      "om": 716,
      "è·": 717,
      "å¸Ĥ": 718,
      "ç±": 719,
      "åĲĪ": 720,
      "ĠçĶµ": 721,
      "Ġth": 722,
      "ĠS": 723,
      "Ġçī¹": 724,
      "ĠC": 725,
      "Ġè¿ĺæĺ¯": 726,
      "Ġç»Ļ": 727,
      "Ġæīĵ": 728,
      "Ġåĩł": 729,
      "å¼ı": 730,
      "Ġæľ¬": 731,
      "il": 732,
      "Ġæ¯ı": 733,
      "ĠåĨħ": 734,
      "ĠT": 735,
      "æ¸": 736,
      "ĠåĿ": 737,
      "Ġä¸ŃåĽ½": 738,
      "Ġéħ": 739,
      "åĮº": 740,
      "Ġæ±": 741,
      "æĦı": 742,
      "Ġéĩį": 743,
      "ç¤": 744,
      "Ġn": 745,
      "çķ": 746,
      "æĻ": 747,
      "ĠæŃ£": 748,
      "Ġå¥¹": 749,
      "ĠæĪĸ": 750,
      "Ġæ´": 751,
      "ct": 752,
      "çŃ": 753,
      "Ġä»Ģä¹Ī": 754,
      "Ġe": 755,
      "èĬ": 756,
      "ve": 757,
      "Ġè¡¨": 758,
      "åŁ": 759,
      "Ġéģ": 760,
      "Ġæ¶": 761,
      "Ġç²": 762,
      "äºĭ": 763,
      "çī©": 764,
      "æĮ": 765,
      "èµ·": 766,
      "Ġä½Ĩæĺ¯": 767,
      "å£": 768,
      "ĠãĢĭ": 769,
      "æł¼": 770,
      "ĠãĢĬ": 771,
      "èī²": 772,
      "åħ¥": 773,
      "æ¯": 774,
      "ĠåĽŀ": 775,
      "ĠçĲ": 776,
      "æľŁ": 777,
      "ĠçĿĢ": 778,
      "į®": 779,
      "Ł³": 780,
      "è°": 781,
      "ĠåĬł": 782,
      "Ġæ·": 783,
      "ç¨": 784,
      "è½¦": 785,
      "Ġèģ": 786,
      "éĶĻ": 787,
      "Ġèĭ": 788,
      "ĠåİŁ": 789,
      "åĿ": 790,
      "Ġl": 791,
      "åı¸": 792,
      "åıĭ": 793,
      "st": 794,
      "åĲį": 795,
      "Ġç»ĵ": 796,
      "ĠåıĪ": 797,
      "éĽ": 798,
      "éķ¿": 799,
      "Ġæīĭ": 800,
      "Ġéľ": 801,
      "Ġç«": 802,
      "ĠæĢ»": 803,
      "Ġåħ³": 804,
      "Ġäºİ": 805,
      "ĠéĢļ": 806,
      "ĠåĨį": 807,
      "Ġå¤ª": 808,
      "è§ī": 809,
      "åıĳ": 810,
      "ŀĭ": 811,
      "ĠåĽłä¸º": 812,
      "Ġæľį": 813,
      "çĿĢ": 814,
      "ĠèĬ": 815,
      "æģ": 816,
      "å¤ĸ": 817,
      "Ġé»": 818,
      "äºĨ": 819,
      "æ¡": 820,
      "Ġä¸įæĺ¯": 821,
      "ĠåŁº": 822,
      "è¥¿": 823,
      "Ġg": 824,
      "æĥħ": 825,
      "éħ": 826,
      "ĠæĹ¶åĢĻ": 827,
      "Ġå¤ĸ": 828,
      "åħ¬": 829,
      "ĠåºĶ": 830,
      "Ġæ°´": 831,
      "Ġå¥³": 832,
      "æĺİ": 833,
      "ĠéĽ": 834,
      "ĠI": 835,
      "Ġå¸Ĥ": 836,
      "è¶": 837,
      "æ¬¢": 838,
      "ĠåĢ": 839,
      "ĠÐ": 840,
      "Ġæĸĩ": 841,
      "é¥": 842,
      "ĠåĲĦ": 843,
      "Ġä¸ľ": 844,
      "Ġä»ĸä»¬": 845,
      "Ġå»º": 846,
      "Ġäºĭ": 847,
      "é¡": 848,
      "Ġä¹°": 849,
      "åİ»": 850,
      "ĠæĬĬ": 851,
      "Ġå¹³": 852,
      "ĠéĿŀ": 853,
      "Ġæ¬": 854,
      "ĠM": 855,
      "Ġé¡": 856,
      "ĥı": 857,
      "Ġæŀ": 858,
      "åı£": 859,
      "Ġç©": 860,
      "Ġè¡Į": 861,
      "åĪ«": 862,
      "è¾ĥ": 863,
      "è±": 864,
      "çĪ": 865,
      "Ġå®Į": 866,
      "id": 867,
      "æ°ĳ": 868,
      "åĪ©": 869,
      "ľæ¬¢": 870,
      "å°ĳ": 871,
      "ç©": 872,
      "Ġä¿Ŀ": 873,
      "Ġæ¯Ķè¾ĥ": 874,
      "Ġå¦Ĥæŀľ": 875,
      "æľ¯": 876,
      "Ġéķ¿": 877,
      "ĠçĶ±": 878,
      "ä»¶": 879,
      "è®¡": 880,
      "å¤´": 881,
      "åĲĮ": 882,
      "Ħ¿": 883,
      "et": 884,
      "Ġéĥ½æĺ¯": 885,
      "Ġèĥ": 886,
      "Ġå¤©": 887,
      "è¯Ŀ": 888,
      "ĠéĿ¢": 889,
      "Ġäº§": 890,
      "Ġåĳ³": 891,
      "Ġï¼Ľ": 892,
      "éĹ¨": 893,
      "ce": 894,
      "Ġç½ĳ": 895,
      "è·¯": 896,
      "ĠæľįåĬ¡": 897,
      "æĸ¯": 898,
      "£ħ": 899,
      "å¢": 900,
      "Ġå¾Īå¤ļ": 901,
      "Ġçł": 902,
      "Ġè§ī": 903,
      "©¬": 904,
      "ĠéĹ®é¢ĺ": 905,
      "éĴ": 906,
      "Ġè®°": 907,
      "ç¤º": 908,
      "èį": 909,
      "ĠéĶ": 910,
      "èĲ": 911,
      "ĠéĴ": 912,
      "ol": 913,
      "Ġæİ¨": 914,
      "ĠP": 915,
      "ut": 916,
      "Ġfor": 917,
      "åĬł": 918,
      "Ġå¢": 919,
      "ĠæĦŁè§ī": 920,
      "ç¥": 921,
      "åĳ³": 922,
      "é£": 923,
      "éª": 924,
      "Ġæĥħ": 925,
      "Ġä»·": 926,
      "Ġæīį": 927,
      "ra": 928,
      "Ġè§īå¾Ĺ": 929,
      "çŁ¥": 930,
      "Ġä¸ĵ": 931,
      "åħĥ": 932,
      "ĠæīĢä»¥": 933,
      "ä¸Ķ": 934,
      "Ġè®¤": 935,
      "Ġèµ·": 936,
      "æīĭ": 937,
      "åŀĭ": 938,
      "im": 939,
      "ä»·": 940,
      "éĩĳ": 941,
      "å¦": 942,
      "Ġçİ°åľ¨": 943,
      "åĲĥ": 944,
      "å±ķ": 945,
      "ĠæĶ¶": 946,
      "ç¨ĭ": 947,
      "Ġå·²ç»ı": 948,
      "Ġåı¯èĥ½": 949,
      "ot": 950,
      "å°Ķ": 951,
      "Ġå¿ĥ": 952,
      "Ġè®¾": 953,
      "Ġæ»": 954,
      "ĠéĢī": 955,
      "ç´": 956,
      "èģ": 957,
      "ĠåķĬ": 958,
      "ĠçĽ®": 959,
      "ĠèĦ": 960,
      "Ġon": 961,
      "ment": 962,
      "æĹ¥": 963,
      "çĸ": 964,
      "åĪ¶": 965,
      "å¸Ī": 966,
      "ly": 967,
      "æŃ¤": 968,
      "Ġä½¿": 969,
      "Ġbe": 970,
      "çĥ": 971,
      "Ġæľº": 972,
      "éĺŁ": 973,
      "Ġçģ": 974,
      "ĠåĲ§": 975,
      "Ġåĳ³éģĵ": 976,
      "æ°´": 977,
      "Ġä¸įè¿ĩ": 978,
      "Ġå·¥ä½ľ": 979,
      "ä»£": 980,
      "é¦": 981,
      "é«ĺ": 982,
      "Ġä»Ĭ": 983,
      "ĠéľĢ": 984,
      "Ġç¤": 985,
      "éĻ¢": 986,
      "æ°Ķ": 987,
      "æĸĩ": 988,
      "åħ³": 989,
      "¡®": 990,
      "å§ĭ": 991,
      "ĠåıĬ": 992,
      "çļ": 993,
      "Ġæķ°": 994,
      "ç³»": 995,
      "Ġ'": 996,
      "åĸ": 997,
      "è´¹": 998,
      "ig": 999,
      "å¼Ģ": 1000,
      "Ļ¾": 1001,
      "Ġå®ī": 1002,
      "Ġåħĥ": 1003,
      "äº§": 1004,
      "Ġä¸ĩ": 1005,
      "èº«": 1006,
      "ĠåĮħ": 1007,
      "ĠB": 1008,
      "Ġå¸¦": 1009,
      "çº¿": 1010,
      "èıľ": 1011,
      "å¯¹": 1012,
      "Ġç¼": 1013,
      "Ġè¿Ľè¡Į": 1014,
      "Ġæİ¥": 1015,
      "Ġu": 1016,
      "éĿ": 1017,
      "ĠæķĻ": 1018,
      "åķ": 1019,
      "Ġè¿ĺæľī": 1020,
      "çīĩ": 1021,
      "Ġç¨": 1022,
      "Ġé¥": 1023,
      "Ġåıį": 1024,
      "ĠåĲį": 1025,
      "Ġæ¸ħ": 1026,
      "èĪ¬": 1027,
      "èµĦ": 1028,
      "å·¥": 1029,
      "çĹ": 1030,
      "çº§": 1031,
      "æ®": 1032,
      "ĠåĲĪ": 1033,
      "Ġè¯¥": 1034,
      "Ġäº¤": 1035,
      "Ġåī": 1036,
      "èĦ": 1037,
      "ĠæĲ": 1038,
      "ur": 1039,
      "æį®": 1040,
      "ĠæĶ¾": 1041,
      "Ġçİ¯": 1042,
      "Ġæĺİ": 1043,
      "ç±»": 1044,
      "æķ°": 1045,
      "Ġè¶ħ": 1046,
      "æµ·": 1047,
      "è®º": 1048,
      "æĸ°": 1049,
      "±¼": 1050,
      "Ġèĩ³": 1051,
      "æ±Ĥ": 1052,
      "ĠåĮĹ": 1053,
      "ĠæĦı": 1054,
      "çķĮ": 1055,
      "ħ§": 1056,
      "ĠèĪ": 1057,
      "éĢļ": 1058,
      "Ġä½ĵ": 1059,
      "ĠâĢ¦": 1060,
      "ĠæĹ¶éĹ´": 1061,
      "Ġè½¦": 1062,
      "ä¸»": 1063,
      "Ġéĵ": 1064,
      "Ġ\"": 1065,
      "åĦ¿": 1066,
      "è´¨": 1067,
      "ç»Ł": 1068,
      "ĠD": 1069,
      "Ġst": 1070,
      "ĠæŃ¤": 1071,
      "Ġèī": 1072,
      "ĠèĲ": 1073,
      "å£«": 1074,
      "éļ": 1075,
      "Ġç¬¬ä¸Ģ": 1076,
      "èĤī": 1077,
      "è§£": 1078,
      "Ġpro": 1079,
      "Ġä¸įéĶĻ": 1080,
      "åºĹ": 1081,
      "Ġå®ĥ": 1082,
      "åıĬ": 1083,
      "åħ¨": 1084,
      "ĠçŁ¥": 1085,
      "Ġä¸ĢäºĽ": 1086,
      "æĸĻ": 1087,
      "Ġéĩĳ": 1088,
      "æĮģ": 1089,
      "ch": 1090,
      "æ¶": 1091,
      "Ġis": 1092,
      "Ġæµ·": 1093,
      "ĠèĢĥ": 1094,
      "¦»": 1095,
      "el": 1096,
      "¤Ĳ": 1097,
      "Ġèº«": 1098,
      "Ġåĸľæ¬¢": 1099,
      "Ġéĥ¨": 1100,
      "ĠæĮĩ": 1101,
      "ver": 1102,
      "ä¹¦": 1103,
      "ĠçĽ´": 1104,
      "ĭåıĭ": 1105,
      "Ġèıľ": 1106,
      "çľĭ": 1107,
      "èĥ": 1108,
      "Ġ%": 1109,
      "å¢ĥ": 1110,
      "è¾¹": 1111,
      "åı°": 1112,
      "ĠäºĮ": 1113,
      "ĠæĬķ": 1114,
      "ĠèµĦ": 1115,
      "å®¹": 1116,
      "Ġç±": 1117,
      "ĠçĦ¶": 1118,
      "æģ¯": 1119,
      "Ġé¦ĸ": 1120,
      "çĲĥ": 1121,
      "å¦Ĥ": 1122,
      "Ġåıĺ": 1123,
      "Ġcon": 1124,
      "ĠçĶ·": 1125,
      "ĠéĿŀå¸¸": 1126,
      "ĠG": 1127,
      "Ġæį": 1128,
      "Ġè¥¿": 1129,
      "Ġä¿¡": 1130,
      "çĽ®": 1131,
      "Ġè¿Ļæł·": 1132,
      "æº": 1133,
      "Ġæ¶Ī": 1134,
      "ad": 1135,
      "¼Ķ": 1136,
      "Ġèµ°": 1137,
      "åĨħ": 1138,
      "Ġä¸ĢèĪ¬": 1139,
      "Ġç¥": 1140,
      "ĠçĲĨ": 1141,
      "ĠæĶ¹": 1142,
      "Ġæģ": 1143,
      "Ġthat": 1144,
      "çĽ´": 1145,
      "Ġå¼º": 1146,
      "Ġè·Ł": 1147,
      "Ġç³»": 1148,
      "Ġä¹Łæĺ¯": 1149,
      "æľĽ": 1150,
      "ĠèĢĮä¸Ķ": 1151,
      "ow": 1152,
      "Ġé£İ": 1153,
      "Ġç´": 1154,
      "å·ŀ": 1155,
      "ä¿¡": 1156,
      "Ġå¼Ģå§ĭ": 1157,
      "æĦŁ": 1158,
      "Ġåįķ": 1159,
      "Ġå¹¿": 1160,
      "ĠæĢİ": 1161,
      "Ġç¤¾": 1162,
      "æ´»": 1163,
      "èµĽ": 1164,
      "ĠåĶ": 1165,
      "Ġé¦Ļ": 1166,
      "Ġç²¾": 1167,
      "çł": 1168,
      "èħ": 1169,
      "éľ": 1170,
      "Ġèİ": 1171,
      "å°ı": 1172,
      "Ġåįģ": 1173,
      "Ġå¢ŀ": 1174,
      "ä¹Ĳ": 1175,
      "Ġæ´»": 1176,
      "åĨµ": 1177,
      "æŁ": 1178,
      "ä½ķ": 1179,
      "ir": 1180,
      "Ġä¼ł": 1181,
      "ç«ĭ": 1182,
      "ĠåıĤ": 1183,
      "ĠåĽĽ": 1184,
      "ĠæŁ": 1185,
      "se": 1186,
      "Ġåı£": 1187,
      "ay": 1188,
      "ç¾İ": 1189,
      "Ġåĳ¨": 1190,
      "Ġå¸Ĥåľº": 1191,
      "Ġå½±": 1192,
      "è¿ĳ": 1193,
      "¨¡": 1194,
      "å±±": 1195,
      "Ġæ³ķ": 1196,
      "æĪ·": 1197,
      "ç®¡": 1198,
      "ĠåħĪ": 1199,
      "ĠH": 1200,
      "Ġè¿Ĳ": 1201,
      "èĮ": 1202,
      "Ġæķ´": 1203,
      "Ġè°ĥ": 1204,
      "åıĹ": 1205,
      "éĵ": 1206,
      "ĠçĥŃ": 1207,
      "ä»ĸ": 1208,
      "åģ": 1209,
      "å²": 1210,
      "éĩį": 1211,
      "ul": 1212,
      "Ġæ¡": 1213,
      "çģ": 1214,
      "å¸ĥ": 1215,
      "è®®": 1216,
      "Ġæĳ": 1217,
      "Ġ/": 1218,
      "ĠåºĹ": 1219,
      "Ġçĭ": 1220,
      "Ġä¼ĺ": 1221,
      "ĠçĪ±": 1222,
      "Ġåıĳçİ°": 1223,
      "æĺĵ": 1224,
      "ter": 1225,
      "åħĭ": 1226,
      "Ġæ·±": 1227,
      "ith": 1228,
      "ĠæĶ¿": 1229,
      "Ġéļı": 1230,
      "¨Ģ": 1231,
      "ĠèĻ½": 1232,
      "ĠÂ": 1233,
      "è§Ĩ": 1234,
      "Ġè§£": 1235,
      "ĠåĪĽ": 1236,
      "Ġèį": 1237,
      "Ġas": 1238,
      "Ļ¨": 1239,
      "Ġå§": 1240,
      "Ġåħ¬åı¸": 1241,
      "è±¡": 1242,
      "ç»Ń": 1243,
      "Ġçķ": 1244,
      "ĠæĬ¥": 1245,
      "ç®Ĺ": 1246,
      "ĠéľĢè¦ģ": 1247,
      "è§ģ": 1248,
      "Ġä¹¦": 1249,
      "ĠæĤ": 1250,
      "©åŃĲ": 1251,
      "ĠL": 1252,
      "æł¡": 1253,
      "ä»½": 1254,
      "ĠåıĹ": 1255,
      "am": 1256,
      "äº¬": 1257,
      "Ġåħ¶ä»ĸ": 1258,
      "Ġä¸ĸ": 1259,
      "çĶµ": 1260,
      "åįķ": 1261,
      "äºĮ": 1262,
      "å¤ĩ": 1263,
      "Ġåĳ¢": 1264,
      "èĭ": 1265,
      "åī": 1266,
      "Ġy": 1267,
      "Ġæ¸¸": 1268,
      "ĠåĪ«": 1269,
      "ĠåĲĳ": 1270,
      "åĽł": 1271,
      "ç§ĳ": 1272,
      "Ġæī¾": 1273,
      "æ»": 1274,
      "²ľ": 1275,
      "Ġde": 1276,
      "èĤ²": 1277,
      "Ġå°ĳ": 1278,
      "ĠåĪ¶": 1279,
      "ç²": 1280,
      "éĻħ": 1281,
      "ĠéĢļè¿ĩ": 1282,
      "Ġä»·æł¼": 1283,
      "Ġå¾Īå¥½": 1284,
      "å¹³": 1285,
      "Ġå¿«": 1286,
      "å½±": 1287,
      "ĠçľĭåĪ°": 1288,
      "ĠçĻ½": 1289,
      "çİĩ": 1290,
      "è¯¥": 1291,
      "ĠN": 1292,
      "Ġå·®": 1293,
      "Ġå¦": 1294,
      "ĠçĹ": 1295,
      "é¥Ń": 1296,
      "æĭī": 1297,
      "æ®µ": 1298,
      "ĠåĬ¨": 1299,
      "¥¼": 1300,
      "op": 1301,
      "ç©¶": 1302,
      "Ġè¿ĳ": 1303,
      "Ġwith": 1304,
      "æĬ¥": 1305,
      "åĥı": 1306,
      "Ġè½¬": 1307,
      "Ġåıĳå±ķ": 1308,
      "ĠæĢİä¹Ī": 1309,
      "ĠåķĨ": 1310,
      "æĥ³": 1311,
      "Ġç¾İåĽ½": 1312,
      "Ġè¿ĻäºĽ": 1313,
      "Ġit": 1314,
      "æ¯Ķ": 1315,
      "Ġå¹²": 1316,
      "è¾¾": 1317,
      "Ġæ£": 1318,
      "Ġæľĭåıĭ": 1319,
      "éªĮ": 1320,
      "æ¡Ī": 1321,
      "ĠW": 1322,
      "æŃ¥": 1323,
      "ĠåįĹ": 1324,
      "Ġå¾®": 1325,
      "Ġç©º": 1326,
      "èĩª": 1327,
      "çī¹": 1328,
      "Ġèĭ±": 1329,
      "Ġä½į": 1330,
      "åĻ¨": 1331,
      "åºĶ": 1332,
      "Ġçİ¯å¢ĥ": 1333,
      "åķĨ": 1334,
      "ĠåĮ»": 1335,
      "ĠçłĶ": 1336,
      "åįĹ": 1337,
      "åĵį": 1338,
      "ĠéĤ£ä¹Ī": 1339,
      "èĢĮ": 1340,
      "ĠÂ·": 1341,
      "æºĲ": 1342,
      "ĠR": 1343,
      "Ġæł¹": 1344,
      "Ġè§Ħ": 1345,
      "Ġåį´": 1346,
      "Ġè¿Ļç§į": 1347,
      "Ġä¸ĢçĽ´": 1348,
      "çīĮ": 1349,
      "ä¸ľ": 1350,
      "ä»»": 1351,
      "Ġå¤Ħ": 1352,
      "ĠåºĶè¯¥": 1353,
      "Ġç»Ħ": 1354,
      "Ġæľª": 1355,
      "æīĢ": 1356,
      "ç½ĳ": 1357,
      "åĨĽ": 1358,
      "ĠèĻ½çĦ¶": 1359,
      "Ġhe": 1360,
      "Ġé¢Ĩ": 1361,
      "ĠæĹ©": 1362,
      "Ġä¸ľè¥¿": 1363,
      "ĠF": 1364,
      "æ¬¾": 1365,
      "Ġä»»": 1366,
      "Ġcom": 1367,
      "Ġéļ¾": 1368,
      "åı¯": 1369,
      "ĠæĥħåĨµ": 1370,
      "Ġåĵģ": 1371,
      "è¨Ģ": 1372,
      "åħī": 1373,
      "Ġçª": 1374,
      "Ġä¾¿": 1375,
      "Ġä¸»è¦ģ": 1376,
      "Ġå²": 1377,
      "Ġçº¢": 1378,
      "Ġè®°èĢħ": 1379,
      "ĠæĬĢ": 1380,
      "Ġå¤§å®¶": 1381,
      "å¤Ħ": 1382,
      "ĠçĽ®åīį": 1383,
      "ĠThe": 1384,
      "Ġè¶Ĭ": 1385,
      "Ġé¢Ħ": 1386,
      "ĠèĽ": 1387,
      "èĬĤ": 1388,
      "Ġåħ¶å®ŀ": 1389,
      "å¤Ł": 1390,
      "ģä¸ļ": 1391,
      "æĶ¿": 1392,
      "åŃĹ": 1393,
      "ĠæľīçĤ¹": 1394,
      "Ġ:": 1395,
      "Ġæµģ": 1396,
      "Ġè¿ŀ": 1397,
      "Ġåį³": 1398,
      "è¯Ĩ": 1399,
      "ri": 1400,
      "Ġåı¦": 1401,
      "¸¡": 1402,
      "Ġç§°": 1403,
      "Ġæĭ¿": 1404,
      "ĠçĤ": 1405,
      "ä¹ł": 1406,
      "ç½®": 1407,
      "Ġå¼ł": 1408,
      "æĢģ": 1409,
      "Ġèħ": 1410,
      "Ġå½¢": 1411,
      "å¾·": 1412,
      "æİ¥": 1413,
      "å±Ģ": 1414,
      "Ġé©¬": 1415,
      "Ġçī¹åĪ«": 1416,
      "ĠåŃ©åŃĲ": 1417,
      "Ġè·¯": 1418,
      "ç±³": 1419,
      "è¯Ń": 1420,
      "ate": 1421,
      "Ġä¹ĭåĲİ": 1422,
      "åħĪ": 1423,
      "Ġéħį": 1424,
      "ĠéĩĮéĿ¢": 1425,
      "æµģ": 1426,
      "è¿Ľ": 1427,
      "ort": 1428,
      "å¯¼": 1429,
      "èĻ": 1430,
      "æ¹": 1431,
      "ĠE": 1432,
      "æľį": 1433,
      "åĶ": 1434,
      "æľĪ": 1435,
      "Ġä½İ": 1436,
      "ĠæĶ¯": 1437,
      "ç¬": 1438,
      "ä¹ī": 1439,
      "åĬ©": 1440,
      "ĠæĽ¾": 1441,
      "Ġå¯¹äºİ": 1442,
      "pp": 1443,
      "Ġåľ°æĸ¹": 1444,
      "åįİ": 1445,
      "å¨": 1446,
      "Ġan": 1447,
      "è¯ģ": 1448,
      "Ġçİĭ": 1449,
      "ĠèĬ±": 1450,
      "ç¼": 1451,
      "Ġç®Ĺ": 1452,
      "èĩ´": 1453,
      "Ġä¸įèĥ½": 1454,
      "Ġal": 1455,
      "Ġä½¿çĶ¨": 1456,
      "ĠåĲ¬": 1457,
      "çĤ": 1458,
      "å¥³": 1459,
      "Ġå¿ħ": 1460,
      "ĠèģĶ": 1461,
      "ĠçĦ¶åĲİ": 1462,
      "Ġä¸Ģä¸ĭ": 1463,
      "ĠæĮº": 1464,
      "èĬ±": 1465,
      "ĠéĢĤ": 1466,
      "å®ī": 1467,
      "Ġæ»¡": 1468,
      "Ġè¡¨ç¤º": 1469,
      "ĠæİĴ": 1470,
      "è£ħ": 1471,
      "æĭ©": 1472,
      "åĢ¼": 1473,
      "ĠçŁ": 1474,
      "æŃ£": 1475,
      "æŁ¥": 1476,
      "Ġsu": 1477,
      "è¯ķ": 1478,
      "çĪ±": 1479,
      "Ġä½ľä¸º": 1480,
      "èĩ³": 1481,
      "Ġç®Ģ": 1482,
      "ıŃ": 1483,
      "æĿ¿": 1484,
      "Ġè®¤ä¸º": 1485,
      "åŁİ": 1486,
      "Ġé£Ł": 1487,
      "Ġæĺ¾": 1488,
      "Ġæ°ĳ": 1489,
      "æµİ": 1490,
      "Ġç¡®": 1491,
      "Ġä¸įä¼ļ": 1492,
      "ĠåĽ½å®¶": 1493,
      "ä¼Ĺ": 1494,
      "Ġä»¥åıĬ": 1495,
      "Ġç®¡": 1496,
      "åºľ": 1497,
      "ĠèĮ": 1498,
      "ĠäºĶ": 1499,
      "Ġç¾": 1500,
      "Ġä»£": 1501,
      "åĲĳ": 1502,
      "åħ¶": 1503,
      "Ġé»Ħ": 1504,
      "ld": 1505,
      "Ġå½±åĵį": 1506,
      "Ġä¼ģä¸ļ": 1507,
      "ĠçīĽ": 1508,
      "éĢł": 1509,
      "Ġè¾ĥ": 1510,
      "Ń¦": 1511,
      "åł": 1512,
      "ĠçĲĥ": 1513,
      "ĠåŁİ": 1514,
      "ä¸ī": 1515,
      "ers": 1516,
      "Ġåħ¥": 1517,
      "Ĭ¶": 1518,
      "åĬ¿": 1519,
      "Ġé»ĳ": 1520,
      "ĠæĪĲä¸º": 1521,
      "Ġåĥı": 1522,
      "ĠéĢīæĭ©": 1523,
      "èİ": 1524,
      "Ġæļ": 1525,
      "è¡¨": 1526,
      "Ġwh": 1527,
      "ĠO": 1528,
      "èģĶ": 1529,
      "æĺŁ": 1530,
      "Ġéĩĩ": 1531,
      "Ġäº§åĵģ": 1532,
      "if": 1533,
      "ab": 1534,
      "ĠåĪ©": 1535,
      "ity": 1536,
      "ç«Ļ": 1537,
      "äºļ": 1538,
      "ĠçĶŁæ´»": 1539,
      "Ġä¸įåĲĮ": 1540,
      "Ġå®¢": 1541,
      "res": 1542,
      "Ġçĸ": 1543,
      "Ġæį®": 1544,
      "ĠæĪĸèĢħ": 1545,
      "é±¼": 1546,
      "Ġä¸įçŁ¥": 1547,
      "ge": 1548,
      "æĿ¡": 1549,
      "ç´ł": 1550,
      "Ġæłĩ": 1551,
      "ä¹ĭ": 1552,
      "ĠæĪ¿": 1553,
      "Ġä¸Ģå®ļ": 1554,
      "Ġéª": 1555,
      "Ġè®¾è®¡": 1556,
      "æ·": 1557,
      "ĠåıĮ": 1558,
      "Ġåĺ": 1559,
      "Ġè£ħ": 1560,
      "ĠåĽ¾": 1561,
      "ect": 1562,
      "ä¾¿": 1563,
      "ĠåĨĻ": 1564,
      "Ġå¼ķ": 1565,
      "Ġç»ĵæŀľ": 1566,
      "Ġæ¨¡": 1567,
      "Ġåı°": 1568,
      "é¤Ĳ": 1569,
      "Ġçİ©": 1570,
      "é¾": 1571,
      "éĢŁ": 1572,
      "Ġ;": 1573,
      "ĠåĲĮæĹ¶": 1574,
      "ill": 1575,
      "Ġéĺ¿": 1576,
      "Ġçģ«": 1577,
      "Ġè¯Ħ": 1578,
      "Ġä¸Ģç§į": 1579,
      "ĠåŁºæľ¬": 1580,
      "Ġåħ±": 1581,
      "åı·": 1582,
      "Ġåħ·": 1583,
      "æĪı": 1584,
      "åįģ": 1585,
      "ess": 1586,
      "çļĦ": 1587,
      "æĪĺ": 1588,
      "ĠæľĢåĲİ": 1589,
      "å½ĵ": 1590,
      "Ġèİ·": 1591,
      "Ġä¸¤ä¸ª": 1592,
      "æĤ": 1593,
      "åħ¬åı¸": 1594,
      "est": 1595,
      "ĠçłĶç©¶": 1596,
      "é©¬": 1597,
      "ĠæĻļ": 1598,
      "Ġæ³¨": 1599,
      "Ġåıªæĺ¯": 1600,
      "ĠéĻ¤": 1601,
      "ac": 1602,
      "Ġä¸ªäºº": 1603,
      "åĴ": 1604,
      "ĠåĩºæĿ¥": 1605,
      "ĠæĮī": 1606,
      "è¶³": 1607,
      "Ġor": 1608,
      "ĠâĢĶ": 1609,
      "ĠæĿİ": 1610,
      "æĽ": 1611,
      "å®¢": 1612,
      "ist": 1613,
      "ĠæĪĺ": 1614,
      "Ġè¿ĻéĩĮ": 1615,
      "od": 1616,
      "ies": 1617,
      "åĮħ": 1618,
      "Ġå¯¼": 1619,
      "Ġæ´»åĬ¨": 1620,
      "æĪ¿": 1621,
      "Ġå¸Į": 1622,
      "åºķ": 1623,
      "her": 1624,
      "æį": 1625,
      "ç³": 1626,
      "ĠæĢ§": 1627,
      "ĠçĮ": 1628,
      "Ġç§ĳ": 1629,
      "qu": 1630,
      "um": 1631,
      "Ġå¸®": 1632,
      "Ġå·¦": 1633,
      "ĠÑ": 1634,
      "Ġåĩºçİ°": 1635,
      "æ¢": 1636,
      "Ġè§Ĥ": 1637,
      "Ġè®¡": 1638,
      "ĠåĪļ": 1639,
      "Ġå¸¸": 1640,
      "Ġå®ļ": 1641,
      "Ġr": 1642,
      "æłĩ": 1643,
      "Ġex": 1644,
      "è§Ĥ": 1645,
      "os": 1646,
      "¦ı": 1647,
      "ĠåįĬ": 1648,
      "Ġby": 1649,
      "ĠåĮº": 1650,
      "Ġèĳ": 1651,
      "ive": 1652,
      "åĽŃ": 1653,
      "ĠåĬŀ": 1654,
      "Ġåĵª": 1655,
      "äº¤": 1656,
      "æ²¹": 1657,
      "ĠéĴ±": 1658,
      "Ġv": 1659,
      "æŀĦ": 1660,
      "and": 1661,
      "us": 1662,
      "åįĪ": 1663,
      "Ġæĭį": 1664,
      "å»º": 1665,
      "igh": 1666,
      "ä¸ĸ": 1667,
      "å©": 1668,
      "ĠæĴ": 1669,
      "éķ": 1670,
      "Ġå£": 1671,
      "æĸŃ": 1672,
      "Ġçľ¼": 1673,
      "æŀĹ": 1674,
      "ĠæľŁ": 1675,
      "em": 1676,
      "ĠåĮĹäº¬": 1677,
      "nt": 1678,
      "ä¾Ľ": 1679,
      "Ġå¥½åĲĥ": 1680,
      "ç¥ŀ": 1681,
      "Ġä¸Ģæł·": 1682,
      "ĠæĻ®": 1683,
      "éĽĨ": 1684,
      "é£Ł": 1685,
      "å¼ł": 1686,
      "ĠæķĪ": 1687,
      "éĴ±": 1688,
      "çĻ½": 1689,
      "æ£": 1690,
      "åĩĨ": 1691,
      "Ġè¾¾": 1692,
      "ec": 1693,
      "art": 1694,
      "åıĸ": 1695,
      "Ġæ°Ķ": 1696,
      "Ġwe": 1697,
      "Ġç¤¾ä¼ļ": 1698,
      "ç¾": 1699,
      "ä¹İ": 1700,
      "çĹħ": 1701,
      "éĹ®": 1702,
      "ĠèĤī": 1703,
      "Ġåıªæľī": 1704,
      "å®Ŀ": 1705,
      "Ġat": 1706,
      "Ġä¸ºäºĨ": 1707,
      "Ġä¸ĸçķĮ": 1708,
      "Ġä¸ĢçĤ¹": 1709,
      "æ²»": 1710,
      "è®¾": 1711,
      "ĠéĿĴ": 1712,
      "ĠåĪĻ": 1713,
      "åĳĬ": 1714,
      "Ġwas": 1715,
      "ĠæĬĢæľ¯": 1716,
      "Ġè±": 1717,
      "ĠéĢģ": 1718,
      "åĿĹ": 1719,
      "åı²": 1720,
      "Ġå¤±": 1721,
      "oc": 1722,
      "é£İ": 1723,
      "ĠéĹ¨": 1724,
      "Ġåı«": 1725,
      "åĪĴ": 1726,
      "ç¢": 1727,
      "Ġåħī": 1728,
      "Ġè¯·": 1729,
      "æ¸¸": 1730,
      "Ġé¡¹": 1731,
      "æķĻ": 1732,
      "ĠçĶ±äºİ": 1733,
      "ĠèĤ¡": 1734,
      "Ġç»ıæµİ": 1735,
      "ĠåĲĹ": 1736,
      "éĻ©": 1737,
      "å±Ĥ": 1738,
      "Ġä¾Ŀ": 1739,
      "ain": 1740,
      "ĠåĸĿ": 1741,
      "ĠæĬķèµĦ": 1742,
      "çħ§": 1743,
      "ĠæıĲä¾Ľ": 1744,
      "æĻ¯": 1745,
      "Ġåħ¶ä¸Ń": 1746,
      "é¦Ĩ": 1747,
      "çĽĺ": 1748,
      "è®°": 1749,
      "çĵ": 1750,
      "æĿĥ": 1751,
      "Ġæ¥¼": 1752,
      "Ġæĸ¹éĿ¢": 1753,
      "Ġæ¼Ķ": 1754,
      "Ġè¿Ļä¹Ī": 1755,
      "æķĪ": 1756,
      "ak": 1757,
      "Ġæ¢": 1758,
      "æŀĲ": 1759,
      "ŀį": 1760,
      "åĽ¢": 1761,
      "éŁ³": 1762,
      "æĴ": 1763,
      "ĠåŃĺ": 1764,
      "è°ĥ": 1765,
      "Ġare": 1766,
      "Ġè¯ķ": 1767,
      "ĠéĤ£ä¸ª": 1768,
      "çº¦": 1769,
      "ĠåĬŁ": 1770,
      "Ġ?": 1771,
      "ä¸įéĶĻ": 1772,
      "Ġè¦ģæ±Ĥ": 1773,
      "ĠU": 1774,
      "åŁŁ": 1775,
      "Ġyou": 1776,
      "Ġéģĵ": 1777,
      "Ġç±³": 1778,
      "è£": 1779,
      "ĠæĹ¥æľ¬": 1780,
      "åĪĹ": 1781,
      "Ġè®²": 1782,
      "åħ°": 1783,
      "ĠæŁĲ": 1784,
      "Ġæīĭæľº": 1785,
      "é»": 1786,
      "Ġä¸įè¦ģ": 1787,
      "Ġæ²¹": 1788,
      "Ġå¤´": 1789,
      "Ġç»Ĩ": 1790,
      "Ġå±±": 1791,
      "Ġç¦»": 1792,
      "ĠåĪĿ": 1793,
      "åĨ³": 1794,
      "ç¡®": 1795,
      "ĠéĢł": 1796,
      "ĠçĻ¾": 1797,
      "æĶ¾": 1798,
      "èĲ¥": 1799,
      "æĭ¬": 1800,
      "åĮĹ": 1801,
      "Ġä¸įçŁ¥éģĵ": 1802,
      "Ġå½ĵæĹ¶": 1803,
      "å¼º": 1804,
      "ĠåĿĲ": 1805,
      "ĠçŁ¥éģĵ": 1806,
      "Ġçī©": 1807,
      "Ġæħ": 1808,
      "Ġè¿Ļå®¶": 1809,
      "ĠæīĢæľī": 1810,
      "ĠåĵĪ": 1811,
      "æ²¡": 1812,
      "Ġä¸¥": 1813,
      "³å®ļ": 1814,
      "un": 1815,
      "Ġè´¨": 1816,
      "çĽĬ": 1817,
      "Ġä»Ĭå¹´": 1818,
      "Ġéĩįè¦ģ": 1819,
      "çĸĹ": 1820,
      "Ġç¥ŀ": 1821,
      "Ġè¶³": 1822,
      "é²ľ": 1823,
      "Ġç¢": 1824,
      "å¿µ": 1825,
      "ore": 1826,
      "ial": 1827,
      "Ġåıĸ": 1828,
      "Ġå¸ĮæľĽ": 1829,
      "æĬ¤": 1830,
      "ĠåŃ¦çĶŁ": 1831,
      "åĩ»": 1832,
      "Ġè´µ": 1833,
      "ĠéŁ": 1834,
      "ant": 1835,
      "ĠåİĨ": 1836,
      "Ġåį°": 1837,
      "Ġä¸Ģæ¬¡": 1838,
      "çľģ": 1839,
      "ĠæĿ¡": 1840,
      "Ġç¿": 1841,
      "çĭ": 1842,
      "Ġè§ģ": 1843,
      "å¡": 1844,
      "ĠåĲİæĿ¥": 1845,
      "Ġç³»ç»Ł": 1846,
      "iv": 1847,
      "æ³¨": 1848,
      "ĭç»": 1849,
      "ĠK": 1850,
      "¿Ģ": 1851,
      "Ġçº¦": 1852,
      "ĠæŃ»": 1853,
      "Ġç¬¬äºĮ": 1854,
      "Ġæ¯ķ": 1855,
      "Ġåı·": 1856,
      "Ġæĭī": 1857,
      "Ġçªģ": 1858,
      "Ġè´Ł": 1859,
      "åıĺ": 1860,
      "Ġä¸ļ": 1861,
      "Ġå±ħ": 1862,
      "åħ·": 1863,
      "ĠåĮħæĭ¬": 1864,
      "Ġk": 1865,
      "ĠçĶļ": 1866,
      "Ġå¤į": 1867,
      "ä½ı": 1868,
      "Ġæ²»": 1869,
      "Ġsh": 1870,
      "å¤į": 1871,
      "æĢĿ": 1872,
      "ä¿Ŀ": 1873,
      "èĢĥ": 1874,
      "æı": 1875,
      "Ġè¯Ŀ": 1876,
      "çīĪ": 1877,
      "ä¼¼": 1878,
      "ĠéħĴ": 1879,
      "ud": 1880,
      "èĽ": 1881,
      "Ġä¸Ģèµ·": 1882,
      "ĠäºĨè§£": 1883,
      "è¯ī": 1884,
      "Ġæ¸¸æĪı": 1885,
      "ew": 1886,
      "éĺ³": 1887,
      "ĠåĲĦç§į": 1888,
      "Ġåĩı": 1889,
      "ç¡": 1890,
      "ĠåĩĨ": 1891,
      "Ġä½ı": 1892,
      "åĽ¾": 1893,
      "èįĲ": 1894,
      "ĠåĨľ": 1895,
      "ĠåĪĨæŀĲ": 1896,
      "ĠæľīäºĽ": 1897,
      "Ġå²ģ": 1898,
      "è®¸": 1899,
      "éĻĲ": 1900,
      "Ġåģľ": 1901,
      "Ġæŀģ": 1902,
      "Ġè¯»": 1903,
      "æĿĳ": 1904,
      "å¤ª": 1905,
      "Ġch": 1906,
      "åĭ": 1907,
      "åŁº": 1908,
      "Ġè§Ĩ": 1909,
      "Ġæ£Ģ": 1910,
      "ĠåĳĬ": 1911,
      "ĠåŃ¦ä¹ł": 1912,
      "Ġä¸ĵä¸ļ": 1913,
      "Ġha": 1914,
      "çŃĶ": 1915,
      "Ġä¸¾": 1916,
      "å¾Ģ": 1917,
      "Ġæķħ": 1918,
      "ĠçĽ¸åħ³": 1919,
      "Ġç®¡çĲĨ": 1920,
      "ĠåĨħå®¹": 1921,
      "éļ¾": 1922,
      "ç©º": 1923,
      "èı": 1924,
      "Ġéº": 1925,
      "å°¼": 1926,
      "end": 1927,
      "ĠæĿ¥è¯´": 1928,
      "Ġå°½": 1929,
      "rom": 1930,
      "Ġäº¿": 1931,
      "çıŃ": 1932,
      "Ġåı¤": 1933,
      "æĹı": 1934,
      "Ġé¸¡": 1935,
      "Ġç±»": 1936,
      "èĤ¡": 1937,
      "ĠçĽ´æİ¥": 1938,
      "Ġæĸ¹å¼ı": 1939,
      "çŃī": 1940,
      "ç¥¨": 1941,
      "æ¼Ķ": 1942,
      "éħĴ": 1943,
      "Ġçº¿": 1944,
      "ĠåıĳçĶŁ": 1945,
      "åĬŁ": 1946,
      "Ĺı": 1947,
      "Ġå¦Ĥä½ķ": 1948,
      "Ġä¸Ĭæµ·": 1949,
      "Ġæİ¨èįĲ": 1950,
      "è¿Ĳ": 1951,
      "Ġæķ°æį®": 1952,
      "åĳ½": 1953,
      "åįļ": 1954,
      "Ġä¿¡æģ¯": 1955,
      "çĽ¸": 1956,
      "Ġéĺ²": 1957,
      "åĽ´": 1958,
      "æ²¡æľī": 1959,
      "ĠçķĻ": 1960,
      "æİĴ": 1961,
      "Ġé¡¹çĽ®": 1962,
      "ff": 1963,
      "åŃ£": 1964,
      "Ġå¨": 1965,
      "ç½Ĺ": 1966,
      "Ġç©¿": 1967,
      "ĠéĽĨ": 1968,
      "Ġåį¡": 1969,
      "ĠæĹħ": 1970,
      "ĠJ": 1971,
      "åĲ¦": 1972,
      "Ġé©": 1973,
      "å¿«": 1974,
      "ations": 1975,
      "ĠçĨ": 1976,
      "ä¸ĩ": 1977,
      "å§Ķ": 1978,
      "Ġæĸ¹æ³ķ": 1979,
      "Ġç»§": 1980,
      "ould": 1981,
      "å¦Ī": 1982,
      "Ġæĵ": 1983,
      "åĬŀ": 1984,
      "Ġæ¸©": 1985,
      "ĠæĸĩåĮĸ": 1986,
      "Ġçĭ¬": 1987,
      "ight": 1988,
      "ĠèĬĤ": 1989,
      "ä»ħ": 1990,
      "åį¡": 1991,
      "Ġè´Ń": 1992,
      "æ´²": 1993,
      "Ġnot": 1994,
      "åįĩ": 1995,
      "ĠæĭĽ": 1996,
      "åĶ®": 1997,
      "Ġle": 1998,
      "ä»Ģä¹Ī": 1999,
      "Ġæį¢": 2000,
      "æħ": 2001,
      "Ġæł¹æį®": 2002,
      "ĠäºĴ": 2003,
      "ĠèĥĮ": 2004,
      "ĠåŃ¦æł¡": 2005,
      "Ġä»Ĭå¤©": 2006,
      "ĠçĶļèĩ³": 2007,
      "æĸ½": 2008,
      "çĮ": 2009,
      "ĠåĲ¸": 2010,
      "Ġå»ºè®®": 2011,
      "Ġäº²": 2012,
      "Ġåįĸ": 2013,
      "Ġçħ§": 2014,
      "å¤«": 2015,
      "ĠåİŁåĽł": 2016,
      "ĠæĢĿ": 2017,
      "éĤ": 2018,
      "è´£": 2019,
      "ĠçĪ¶": 2020,
      "th": 2021,
      "Ġåĩłä¸ª": 2022,
      "å®¤": 2023,
      "æĳ": 2024,
      "Ġä»¥åīį": 2025,
      "Ġé±¼": 2026,
      "æĬĢ": 2027,
      "Ġçļ®": 2028,
      "å¾ħ": 2029,
      "ĠéĻĪ": 2030,
      "æ±Ł": 2031,
      "å½¢": 2032,
      "æ¸¯": 2033,
      "Ġèĥ½å¤Ł": 2034,
      "ĠçŁŃ": 2035,
      "ç§°": 2036,
      "å¸¦": 2037,
      "Ġåħħ": 2038,
      "Ġå¡": 2039,
      "ä¼ł": 2040,
      "Ġå±ķ": 2041,
      "çĿ": 2042,
      "åħ»": 2043,
      "Ġç§į": 2044,
      "åĳ¨": 2045,
      "Ġä»¥åĲİ": 2046,
      "Ġåįİ": 2047,
      "å¾ĭ": 2048,
      "Ġå®īåħ¨": 2049,
      "è¿°": 2050,
      "Ġç»Ŀ": 2051,
      "éĴŁ": 2052,
      "Ġç«ĭ": 2053,
      "ç»Ħ": 2054,
      "ĠèĲ¥": 2055,
      "ç¿": 2056,
      "å®ľ": 2057,
      "åĸľæ¬¢": 2058,
      "å¿Ĺ": 2059,
      "Ġè¿ĩç¨ĭ": 2060,
      "Ġæĺ¨": 2061,
      "ĠåĽ¢": 2062,
      "ç»ĩ": 2063,
      "Ġå®Įåħ¨": 2064,
      "è¶Ĭ": 2065,
      "Ġéĥ¨åĪĨ": 2066,
      "Ġèĥ½åĬĽ": 2067,
      "Ġç¡": 2068,
      "ªĴ": 2069,
      "Ġå¾Ģ": 2070,
      "ure": 2071,
      "ĠéŁ³": 2072,
      "æ¤": 2073,
      "Ġéĥ": 2074,
      "åİ¿": 2075,
      "Ġå±ŀ": 2076,
      "æĺ¾": 2077,
      "åº·": 2078,
      "Ġæ¶Īè´¹": 2079,
      "Ġæ¯Ķå¦Ĥ": 2080,
      "å®³": 2081,
      "Ġç»´": 2082,
      "Ġè¯ģ": 2083,
      "Ġè¡¥": 2084,
      "Ġåģ¥": 2085,
      "ä¸Ŀ": 2086,
      "çļ®": 2087,
      "ĠåĽłæŃ¤": 2088,
      "ĠéĻĦ": 2089,
      "ç»´": 2090,
      "ĭç»į": 2091,
      "å¤§åŃ¦": 2092,
      "ĠåĪĺ": 2093,
      "ĠéĻ¤äºĨ": 2094,
      "ĠåĢĴ": 2095,
      "åİħ": 2096,
      "ĠåľŁ": 2097,
      "Ġä»į": 2098,
      "æŃ¢": 2099,
      "è±Ĩ": 2100,
      "Ġæ¼": 2101,
      "ç»ľ": 2102,
      "ĠçĶľ": 2103,
      "ĠåĬĽ": 2104,
      "Ġå·´": 2105,
      "Ġfrom": 2106,
      "é¾Ļ": 2107,
      "å£°": 2108,
      "Ġæ¬§": 2109,
      "Ġåľº": 2110,
      "ĠçŃĶ": 2111,
      "ĠåŁİå¸Ĥ": 2112,
      "Ġéĵ¶": 2113,
      "æĹł": 2114,
      "ĠèģĮ": 2115,
      "Ġæ¹": 2116,
      "Ġè¾£": 2117,
      "éĢī": 2118,
      "çŁ³": 2119,
      "Ġç»ıå¸¸": 2120,
      "our": 2121,
      "ĠåĢ¼": 2122,
      "Ġé£ŀ": 2123,
      "Ġè§Ĵ": 2124,
      "Ġèīº": 2125,
      "ç¦»": 2126,
      "Ġres": 2127,
      "Ġé¥Ń": 2128,
      "Ġåĭ": 2129,
      "çľ¼": 2130,
      "Ġå®ĺ": 2131,
      "ĠçĶµå½±": 2132,
      "Ġåİĭ": 2133,
      "ust": 2134,
      "ĠåĿĩ": 2135,
      "åįĬ": 2136,
      "æµĭ": 2137,
      "ard": 2138,
      "Ġæ®": 2139,
      "ĠéĻį": 2140,
      "ĠåĵģçīĮ": 2141,
      "èĳ": 2142,
      "åī§": 2143,
      "Ġå®Ŀ": 2144,
      "Ġä¸Ģå®¶": 2145,
      "æĹ¶åĢĻ": 2146,
      "iz": 2147,
      "çĶ»": 2148,
      "Ġä¿®": 2149,
      "ĠæľįåĬ¡åĳĺ": 2150,
      "Ġj": 2151,
      "Ġæ¬¡": 2152,
      "Ġè¡Įä¸ļ": 2153,
      "Ġç²ī": 2154,
      "Ġèµ·æĿ¥": 2155,
      "ĠçĹħ": 2156,
      "ĠV": 2157,
      "åİĨ": 2158,
      "è§Ĵ": 2159,
      "Ġè®¸": 2160,
      "Ġè¿½": 2161,
      "ç»ĵ": 2162,
      "all": 2163,
      "å¯Ł": 2164,
      "ĠåİĨåı²": 2165,
      "ĠåĨĽ": 2166,
      "Ġå½ĵçĦ¶": 2167,
      "Ġå®£": 2168,
      "å·´": 2169,
      "Ġä¸įå°ĳ": 2170,
      "Ġç¨ĭ": 2171,
      "æ»¡": 2172,
      "æ¯į": 2173,
      "çŃĸ": 2174,
      "Ġä»ĭç»į": 2175,
      "Ġé¢ĺ": 2176,
      "èĮ¶": 2177,
      "Ġæ±¤": 2178,
      "Ġçĥ¤": 2179,
      "é©": 2180,
      "è¿ľ": 2181,
      "ĠçĿ": 2182,
      "åĵĪ": 2183,
      "åı³": 2184,
      "äº²": 2185,
      "å¯Į": 2186,
      "é¡¹": 2187,
      "ĠåĽ½åĨħ": 2188,
      "Ġåħ³ç³»": 2189,
      "ap": 2190,
      "æļ": 2191,
      "ĠèĴ": 2192,
      "ĠæķĻèĤ²": 2193,
      "Ġad": 2194,
      "Ġä¸ºä»Ģä¹Ī": 2195,
      "Ġé¤Ĳ": 2196,
      "è´§": 2197,
      "ĠéĢĤåĲĪ": 2198,
      "Ġçħ": 2199,
      "Ġæ¯ĶèµĽ": 2200,
      "Ġè½»": 2201,
      "æ¹¾": 2202,
      "åºŃ": 2203,
      "ä¹ħ": 2204,
      "äºī": 2205,
      "Ġhave": 2206,
      "ĠæĮģ": 2207,
      "éĥ½": 2208,
      "ions": 2209,
      "Ġim": 2210,
      "Ġåįł": 2211,
      "ip": 2212,
      "vel": 2213,
      "èĻĳ": 2214,
      "çĶ±": 2215,
      "Ġå¥¶": 2216,
      "è´Ń": 2217,
      "Ġéĩı": 2218,
      "Ġèİ·å¾Ĺ": 2219,
      "ĠæĽ´å¤ļ": 2220,
      "Ġåķ¦": 2221,
      "Ġä¸įå¥½": 2222,
      "åĪĩ": 2223,
      "ĠéŁ©": 2224,
      "ä½¿": 2225,
      "Ġme": 2226,
      "å¥ĩ": 2227,
      "ä¿®": 2228,
      "Ġå©": 2229,
      "ĠåĽ½éĻħ": 2230,
      "ĠåĨ·": 2231,
      "éĶħ": 2232,
      "ĠåĤ": 2233,
      "Ġæĭħ": 2234,
      "ĠåĮĸ": 2235,
      "ĠãĢį": 2236,
      "ĠãĢĮ": 2237,
      "ĠéĶĢ": 2238,
      "æĿĲ": 2239,
      "çĻ¾": 2240,
      "åħ±": 2241,
      "ç»ĥ": 2242,
      "Ġå·¦åı³": 2243,
      "te": 2244,
      "Ġäºļ": 2245,
      "åħ´": 2246,
      "çºª": 2247,
      "ĠæŃ¦": 2248,
      "Ġåģı": 2249,
      "ĠæķĪæŀľ": 2250,
      "æĪĳ": 2251,
      "Ġè¿ľ": 2252,
      "Ġse": 2253,
      "ĠèŃ¦": 2254,
      "åĴĮ": 2255,
      "ĠçĶ¨æĪ·": 2256,
      "Ġè·ĳ": 2257,
      "åĪĻ": 2258,
      "åĽŀ": 2259,
      "Ġçľģ": 2260,
      "Ġæİ§": 2261,
      "Ġæĺ¯åĲ¦": 2262,
      "Ġç»Ī": 2263,
      "Ġæ¯ıæ¬¡": 2264,
      "Ġå¸ĥ": 2265,
      "åłĤ": 2266,
      "ĠåĨ²": 2267,
      "ĠçĶ»": 2268,
      "ĠåĿļ": 2269,
      "Ġç§¯": 2270,
      "ia": 2271,
      "Ġä¹Łæľī": 2272,
      "ĠåŃĺåľ¨": 2273,
      "Ġè½¯": 2274,
      "Ġåıªèĥ½": 2275,
      "ong": 2276,
      "éĹ»": 2277,
      "éĶĢ": 2278,
      "çĬ¶": 2279,
      "ĠèĽ®": 2280,
      "åŃĺ": 2281,
      "Ġsp": 2282,
      "Ġç¼º": 2283,
      "åĮ»": 2284,
      "è¡Ĺ": 2285,
      "Ġè¿Ľåħ¥": 2286,
      "å±ŀ": 2287,
      "Ġå¾·": 2288,
      "Ġæī¿": 2289,
      "ç¾¤": 2290,
      "Ġåħ³æ³¨": 2291,
      "æĶ¶": 2292,
      "Ġåı¦å¤ĸ": 2293,
      "Ġå¦Ī": 2294,
      "æ±¤": 2295,
      "rou": 2296,
      "ĠæľĢå¥½": 2297,
      "è§Ħ": 2298,
      "æķ´": 2299,
      "Ġæ´Ĺ": 2300,
      "èīº": 2301,
      "çģ«": 2302,
      "ĠçĽĳ": 2303,
      "ĠçļĦè¯Ŀ": 2304,
      "ç«ł": 2305,
      "Ġæ½": 2306,
      "ä¸½": 2307,
      "Ġwor": 2308,
      "éħį": 2309,
      "og": 2310,
      "çİĭ": 2311,
      "Ġåħį": 2312,
      "è¡Ģ": 2313,
      "ä»Ĭ": 2314,
      "Ġä»ħ": 2315,
      "Ļ»": 2316,
      "Ġen": 2317,
      "ĠæĲŃ": 2318,
      "red": 2319,
      "ĠæľĢå¤§": 2320,
      "Ġç½ĳç»ľ": 2321,
      "Ġä¾ĭ": 2322,
      "Ġäººåĳĺ": 2323,
      "Ġå£°": 2324,
      "ĠèĢģå¸Ī": 2325,
      "Ġåįĥ": 2326,
      "ĠåŃĹ": 2327,
      "ĠèĲ½": 2328,
      "èį¯": 2329,
      "Ġç³": 2330,
      "ĠåĦ¿": 2331,
      "é¡»": 2332,
      "ç¦ı": 2333,
      "Ġå°¤": 2334,
      "Ġå¤§åŃ¦": 2335,
      "æĥł": 2336,
      "ance": 2337,
      "ç¡Ģ": 2338,
      "Ġå«": 2339,
      "ç«¯": 2340,
      "çłģ": 2341,
      "Ġè´¢": 2342,
      "ĠæĶ¯æĮģ": 2343,
      "ice": 2344,
      "æŁĲ": 2345,
      "Ġç¿»": 2346,
      "Ġå¥Ĺ": 2347,
      "ä¾ĭ": 2348,
      "éĨ": 2349,
      "ĠèµĽ": 2350,
      "è¢": 2351,
      "Ġæĭ¥": 2352,
      "ĠåĳĬè¯ī": 2353,
      "Ġèīºæľ¯": 2354,
      "Ġäºĭæĥħ": 2355,
      "Ġç«Ļ": 2356,
      "ç§¯": 2357,
      "ä¹°": 2358,
      "æĿ¯": 2359,
      "ĠæŃĮ": 2360,
      "Ġä»»ä½ķ": 2361,
      "å¸ģ": 2362,
      "å½ķ": 2363,
      "ĠéĶĻ": 2364,
      "é¢Ŀ": 2365,
      "Ġå¾ĹåĪ°": 2366,
      "åı¥": 2367,
      "ĠçŁ³": 2368,
      "çķ¥": 2369,
      "çª": 2370,
      "Ġè´¨éĩı": 2371,
      "Ġè¿ĲåĬ¨": 2372,
      "å²Ľ": 2373,
      "Ġç¼ĸ": 2374,
      "ĠæıĲé«ĺ": 2375,
      "ªĴä½ĵ": 2376,
      "Ġè°ģ": 2377,
      "Ġæ±Ł": 2378,
      "èĲ½": 2379,
      "Ġå¹³åı°": 2380,
      "ĠåŁºç¡Ģ": 2381,
      "Ġhas": 2382,
      "Ġé²ľ": 2383,
      "Ġç»§ç»Ń": 2384,
      "ä½İ": 2385,
      "ĠæĹłæ³ķ": 2386,
      "åº§": 2387,
      "Ġé¡º": 2388,
      "ĠåĨ°": 2389,
      "Ġè§£åĨ³": 2390,
      "èĢģ": 2391,
      "Ġæł¸": 2392,
      "Ġç»Ł": 2393,
      "è½»": 2394,
      "Ġåı£åĳ³": 2395,
      "é¸": 2396,
      "Ġæľīäºº": 2397,
      "Ġè¾¹": 2398,
      "Ġè¯Ń": 2399,
      "çĸĳ": 2400,
      "çº¢": 2401,
      "ĠçĬ¶": 2402,
      "ç¤¾": 2403,
      "èĽĭ": 2404,
      "Ġä»¥ä¸Ĭ": 2405,
      "Ġä¹ĭéĹ´": 2406,
      "è¿Ļ": 2407,
      "ary": 2408,
      "éķĩ": 2409,
      "èŃ¦": 2410,
      "ated": 2411,
      "å¥Ĺ": 2412,
      "ther": 2413,
      "ĠèĻ": 2414,
      "åĸĦ": 2415,
      "Ġinc": 2416,
      "Ġé¥®": 2417,
      "ĠæľĢè¿ĳ": 2418,
      "ĠæŁ¥": 2419,
      "ĠèĤ¯": 2420,
      "çľŁ": 2421,
      "Ġåĵ¦": 2422,
      "Ġåī¯": 2423,
      "Ġå¾Īå¤§": 2424,
      "ear": 2425,
      "ich": 2426,
      "Ġå¢ŀåĬł": 2427,
      "Ġè£": 2428,
      "ag": 2429,
      "Ġæ¯ıå¤©": 2430,
      "Ġæ³¨æĦı": 2431,
      "éľ²": 2432,
      "Ġè¿ĩåİ»": 2433,
      "Ġå®ŀçİ°": 2434,
      "æĿ¾": 2435,
      "Ġæİ¥åıĹ": 2436,
      "ĠåĪ«äºº": 2437,
      "Ġgo": 2438,
      "ber": 2439,
      "Ġéĥ½ä¼ļ": 2440,
      "Ġæħ¢": 2441,
      "Ġä¾¿å®ľ": 2442,
      "éĥ¨åĪĨ": 2443,
      "æŀģ": 2444,
      "Ġè¡¨çİ°": 2445,
      "è¯·": 2446,
      "Ġä½łä»¬": 2447,
      "èµ·æĿ¥": 2448,
      "Ġè¡Ģ": 2449,
      "ĠéĤ£äºĽ": 2450,
      "Ġthis": 2451,
      "Ġä¾Ľ": 2452,
      "Ġun": 2453,
      "ç²ī": 2454,
      "éº": 2455,
      "Ġå»ºè®¾": 2456,
      "å¹²": 2457,
      "Ġæī§": 2458,
      "Ġåı¯æĺ¯": 2459,
      "è¶£": 2460,
      "ĠæĶ¿åºľ": 2461,
      "Ġåįĩ": 2462,
      "ational": 2463,
      "Ġcont": 2464,
      "cc": 2465,
      "åĪ»": 2466,
      "ĠéĢı": 2467,
      "é¦Ļ": 2468,
      "ĠéĢĢ": 2469,
      "Ġå¿ħé¡»": 2470,
      "Ġå¥¥": 2471,
      "ĠèĽĭ": 2472,
      "Ġå¥½åĥı": 2473,
      "Ġä»£è¡¨": 2474,
      "ĠçĶŁäº§": 2475,
      "Ġçł´": 2476,
      "åĽĽ": 2477,
      "Ġåħ»": 2478,
      "ĠèĩªçĦ¶": 2479,
      "èĦĳ": 2480,
      "Ġè¾¾åĪ°": 2481,
      "ç»Ĩ": 2482,
      "ĠåĬŁèĥ½": 2483,
      "Ġç´§": 2484,
      "Ġé¦ĸåħĪ": 2485,
      "Ġpl": 2486,
      "Ġä¸įä»ħ": 2487,
      "Ġèį¯": 2488,
      "æ¼": 2489,
      "Ġåħ·æľī": 2490,
      "æ¸ħ": 2491,
      "æĴŃ": 2492,
      "Ġcomp": 2493,
      "Ġé¦Ļæ¸¯": 2494,
      "ĠåĨ³å®ļ": 2495,
      "Ġä¼łç»Ł": 2496,
      "ĠåĲĮåŃ¦": 2497,
      "ĠæĻº": 2498,
      "Ġä½ľåĵģ": 2499,
      "æ²³": 2500,
      "ĠåıĤåĬł": 2501,
      "ĠæĪĲåĬŁ": 2502,
      "ĠèĢĥèĻĳ": 2503,
      "çº³": 2504,
      "åĺ": 2505,
      "å®Į": 2506,
      "Ġå°ıæĹ¶": 2507,
      "éĵģ": 2508,
      "Ġimp": 2509,
      "Ġæ²»çĸĹ": 2510,
      "Ġè®¡åĪĴ": 2511,
      "æĽ²": 2512,
      "å½©": 2513,
      "Ġå®¹": 2514,
      "Ġéķ": 2515,
      "Ġä¹Ĳ": 2516,
      "Ġç®Ģåįķ": 2517,
      "ä¸İ": 2518,
      "ical": 2519,
      "Ġå¤ĦçĲĨ": 2520,
      "Ġäººæ°ĳ": 2521,
      "Ġå¯¼èĩ´": 2522,
      "åħ¸": 2523,
      "æ³¢": 2524,
      "ĠçĦ": 2525,
      "è¡£": 2526,
      "Ġæ¿Ģ": 2527,
      "Ġæ²Ļ": 2528,
      "èŀį": 2529,
      "Ġpart": 2530,
      "çĥŃ": 2531,
      "ĠéĢŁ": 2532,
      "ĠIn": 2533,
      "Ġçĥ§": 2534,
      "gh": 2535,
      "ĠæłĩåĩĨ": 2536,
      "per": 2537,
      "ost": 2538,
      "Ġç»Ħç»ĩ": 2539,
      "Ġå»": 2540,
      "Ġæĺ¾ç¤º": 2541,
      "é¢ĳ": 2542,
      "age": 2543,
      "ĠåħŃ": 2544,
      "å¤±": 2545,
      "ĠéĿł": 2546,
      "ĠåĩĨå¤ĩ": 2547,
      "Ġé¼": 2548,
      "Ġè´Łè´£": 2549,
      "Ġç»¿": 2550,
      "Ġéĵģ": 2551,
      "äºĶ": 2552,
      "Ġå®ŀéĻħ": 2553,
      "Ġæ°´å¹³": 2554,
      "Ġå°±ä¼ļ": 2555,
      "ĠåŁ¹": 2556,
      "Ġéº»": 2557,
      "ĠæĹ¢": 2558,
      "è¯»": 2559,
      "ount": 2560,
      "Ġç¬¬ä¸Ģæ¬¡": 2561,
      "Ġæ¯ıä¸ª": 2562,
      "Ġç½Ĺ": 2563,
      "å³": 2564,
      "æĹ¶éĹ´": 2565,
      "ĠçĬ": 2566,
      "ĠçĤĴ": 2567,
      "Ġä½įç½®": 2568,
      "Ġæ²³": 2569,
      "Ġå¹¶ä¸Ķ": 2570,
      "èĨ": 2571,
      "Ġè¯¾": 2572,
      "ĠæĻ®éĢļ": 2573,
      "éĥ": 2574,
      "ĠæĿĥ": 2575,
      "ç´¢": 2576,
      "ç»Ī": 2577,
      "åºı": 2578,
      "Ġäºİæĺ¯": 2579,
      "ĠéŃ": 2580,
      "Ġåħ³äºİ": 2581,
      "èĤ¤": 2582,
      "Ġåħ¨åĽ½": 2583,
      "ast": 2584,
      "ĠåĪĩ": 2585,
      "äº®": 2586,
      "Ġæĺİæĺ¾": 2587,
      "ĠæĺŁ": 2588,
      "çŁ": 2589,
      "ĠåĲĪä½ľ": 2590,
      "Ġåįı": 2591,
      "Ġåħ«": 2592,
      "Ġç¡®å®ŀ": 2593,
      "ĠæľªæĿ¥": 2594,
      "Ġåıªè¦ģ": 2595,
      "èĹı": 2596,
      "ry": 2597,
      "Ġæ¯Ľ": 2598,
      "½è½¦": 2599,
      "Ġæĺ¥": 2600,
      "ä¸įæĺ¯": 2601,
      "Ġall": 2602,
      "Ġéħ¸": 2603,
      "å¯Ĩ": 2604,
      "Ġi": 2605,
      "æİ§": 2606,
      "ĠåĲ«": 2607,
      "å©ļ": 2608,
      "Ġsa": 2609,
      "ç³ķ": 2610,
      "ans": 2611,
      "ĠéĻĦè¿ĳ": 2612,
      "Ġç¾¤": 2613,
      "Ġå®ŀåľ¨": 2614,
      "Ġè°Ī": 2615,
      "è¯Ħ": 2616,
      "ĠèĮĥ": 2617,
      "èģĮ": 2618,
      "éĻ¤": 2619,
      "ome": 2620,
      "ç»Ļ": 2621,
      "Ġèĭı": 2622,
      "é¸¡": 2623,
      "ell": 2624,
      "Ġåģĩ": 2625,
      "çīĽ": 2626,
      "Ġèĵ": 2627,
      "è®¯": 2628,
      "Ġä¼¤": 2629,
      "Ġæİ§åĪ¶": 2630,
      "ĠåªĴä½ĵ": 2631,
      "Ġé¾": 2632,
      "ĠæĢĢ": 2633,
      "Ġç¡¬": 2634,
      "Ġab": 2635,
      "ine": 2636,
      "åŃ©": 2637,
      "ĠçľŁæĺ¯": 2638,
      "Ġå®ĮæĪĲ": 2639,
      "ĠéĩĩçĶ¨": 2640,
      "æ¥¼": 2641,
      "ide": 2642,
      "Ġapp": 2643,
      "ç§Ģ": 2644,
      "Ġå°Ŀ": 2645,
      "è½½": 2646,
      "å»": 2647,
      "åį«": 2648,
      "Ġçľĭçľĭ": 2649,
      "Ġç§»": 2650,
      "Ġå¸®åĬ©": 2651,
      "å¼ķ": 2652,
      "Ġæľºä¼ļ": 2653,
      "æ¥": 2654,
      "ĠéĤ£ç§į": 2655,
      "Ġrep": 2656,
      "Ġåıĳå¸ĥ": 2657,
      "Ġå°¤åħ¶": 2658,
      "ep": 2659,
      "Ġç«ŀ": 2660,
      "ub": 2661,
      "æĻļ": 2662,
      "Ġçİ°åľº": 2663,
      "Ġç»ıè¿ĩ": 2664,
      "å¹ħ": 2665,
      "åĵ¥": 2666,
      "ĩĤ": 2667,
      "ĠæĻļä¸Ĭ": 2668,
      "èĴ": 2669,
      "Ġæľīåħ³": 2670,
      "Ġä¸°": 2671,
      "çłĶ": 2672,
      "Ġæµĵ": 2673,
      "Ġéģĩ": 2674,
      "æ¨¡": 2675,
      "Ġèĸ": 2676,
      "Ġæĵį": 2677,
      "Ġåįļ": 2678,
      "Ġä½ľçĶ¨": 2679,
      "Ġits": 2680,
      "ĠçĪĨ": 2681,
      "Ġå·¨": 2682,
      "æŃĮ": 2683,
      "ĠæĲŀ": 2684,
      "Ġæķ´ä¸ª": 2685,
      "Ġä¸Ķ": 2686,
      "ç»©": 2687,
      "Ġä¹Ī": 2688,
      "Ġwill": 2689,
      "Ġåİ»å¹´": 2690,
      "Ġè¶ħè¿ĩ": 2691,
      "ä¼¤": 2692,
      "çĨ": 2693,
      "ĠæıĲåĩº": 2694,
      "ĠåĽŀçŃĶ": 2695,
      "è®¤": 2696,
      "Ġå¼Ģåıĳ": 2697,
      "ĠçĿ¡": 2698,
      "ok": 2699,
      "æŃ»": 2700,
      "å¥ĸ": 2701,
      "orm": 2702,
      "ä½ł": 2703,
      "Ġåī§": 2704,
      "Ġä¸įå¤ª": 2705,
      "Ġè´§": 2706,
      "Ġæº": 2707,
      "ĠéĺŁ": 2708,
      "Ġè¡Įä¸º": 2709,
      "Ġåľ°åĮº": 2710,
      "Ġæ¯ķä¸ļ": 2711,
      "Ġè±Ĩ": 2712,
      "Ġåı°æ¹¾": 2713,
      "Ġäº§çĶŁ": 2714,
      "du": 2715,
      "ĠèĢģæĿ¿": 2716,
      "ren": 2717,
      "Ġag": 2718,
      "çŃĳ": 2719,
      "ĠçīĪ": 2720,
      "ä¸Ģä¸ª": 2721,
      "å®ĺ": 2722,
      "Ġä¸įæĸŃ": 2723,
      "Ġä½ķ": 2724,
      "ĠæŃ£åľ¨": 2725,
      "one": 2726,
      "ĠçĶ³": 2727,
      "Ġä½įäºİ": 2728,
      "Ġæīįèĥ½": 2729,
      "ult": 2730,
      "ru": 2731,
      "ĠæĮĳ": 2732,
      "Ġåģ¥åº·": 2733,
      "Ġä¼¼": 2734,
      "éĵ¶": 2735,
      "ous": 2736,
      "ĠéĶĢåĶ®": 2737,
      "Ġéĥ¨éĹ¨": 2738,
      "éĢĤ": 2739,
      "Ġå±ŀäºİ": 2740,
      "ĠSt": 2741,
      "Ġå¸¦æĿ¥": 2742,
      "Ġä¸Ģä»½": 2743,
      "éĿŀ": 2744,
      "è¯į": 2745,
      "lic": 2746,
      "Ġè¿Ļæ¬¡": 2747,
      "Ġcomm": 2748,
      "Ġå¤ı": 2749,
      "ĠéĴĪ": 2750,
      "Ġæ¡Į": 2751,
      "Ġè´¹": 2752,
      "åįĸ": 2753,
      "ĠèĮ¶": 2754,
      "Ġdis": 2755,
      "éª¨": 2756,
      "Ġå®¶åºŃ": 2757,
      "Ġè¡£": 2758,
      "å¥¶": 2759,
      "Ġé¸": 2760,
      "Ġæķħäºĭ": 2761,
      "ĠæĤ¨": 2762,
      "ĠæĿ¨": 2763,
      "Ġæ··": 2764,
      "Ġèµ¶": 2765,
      "Ġå¤ļå°ĳ": 2766,
      "Ġè¿ĺä¸įéĶĻ": 2767,
      "Ġèģļ": 2768,
      "Ġç©ºéĹ´": 2769,
      "Ġæĺ¯ä¸įæĺ¯": 2770,
      "Ġä»·åĢ¼": 2771,
      "Ġæµĭ": 2772,
      "éĶ®": 2773,
      "ĠæĤ£": 2774,
      "Ġèº«ä½ĵ": 2775,
      "ĠèĤ¯å®ļ": 2776,
      "ĠæľĢç»Ī": 2777,
      "Ġæĭ¥æľī": 2778,
      "Ġä¸Ģä½į": 2779,
      "æ¦Ĥ": 2780,
      "Ġä¸Ģå¹´": 2781,
      "åı¤": 2782,
      "ĠéĢłæĪĲ": 2783,
      "éĿ©": 2784,
      "Ġåĩłä¹İ": 2785,
      "Ġwhich": 2786,
      "Ġäººä»¬": 2787,
      "å¹¿": 2788,
      "Ġè®º": 2789,
      "ç¯": 2790,
      "ĠåĮ»éĻ¢": 2791,
      "æĮĩ": 2792,
      "ĠæĬ¥éģĵ": 2793,
      "çĳ": 2794,
      "ĠåĢŁ": 2795,
      "èµ°": 2796,
      "Ġä¼°": 2797,
      "å¸Ń": 2798,
      "ĠåĪ©çĶ¨": 2799,
      "Ġtheir": 2800,
      "ç«Ł": 2801,
      "Ġå½¢æĪĲ": 2802,
      "å±ħ": 2803,
      "Ġç¬¬ä¸ī": 2804,
      "ıł": 2805,
      "ĠæĿ¥èĩª": 2806,
      "ĠèĦ¸": 2807,
      "hen": 2808,
      "è¿ĻéĩĮ": 2809,
      "ĠåĲĥé¥Ń": 2810,
      "Ġç¾Ĭ": 2811,
      "ĠæĶ¿çŃĸ": 2812,
      "æŁĵ": 2813,
      "tern": 2814,
      "Ġè¶ĬæĿ¥": 2815,
      "Ġä»¤": 2816,
      "Ġå®¡": 2817,
      "Ġèī²": 2818,
      "ĠåĢ¼å¾Ĺ": 2819,
      "ĠæĥĬ": 2820,
      "ĠçĻ»": 2821,
      "ĠçĶµè§Ĩ": 2822,
      "Ġæŀľ": 2823,
      "è°ĵ": 2824,
      "ĠæľŁéĹ´": 2825,
      "æĶ¿åºľ": 2826,
      "æĺ¥": 2827,
      "Ġç¦ı": 2828,
      "lo": 2829,
      "æł¹": 2830,
      "åľĪ": 2831,
      "Ġæ¤": 2832,
      "Ġper": 2833,
      "Ġå©ļ": 2834,
      "Ġæł·": 2835,
      "åĿĩ": 2836,
      "è¾ĳ": 2837,
      "Ġne": 2838,
      "ĠY": 2839,
      "Ġæľ¨": 2840,
      "æŀ¶": 2841,
      "äºĳ": 2842,
      "ĠéŁ³ä¹Ĳ": 2843,
      "åľŁ": 2844,
      "Ġè®¸å¤ļ": 2845,
      "åģĩ": 2846,
      "ĠéľĢæ±Ĥ": 2847,
      "çĥĪ": 2848,
      "Ġä¸ļåĬ¡": 2849,
      "åĩĢ": 2850,
      "ĠçĽ¸å½ĵ": 2851,
      "Ġæ¨¡å¼ı": 2852,
      "able": 2853,
      "èĮĥ": 2854,
      "ĠçľŁæŃ£": 2855,
      "æĢķ": 2856,
      "éħ¸": 2857,
      "Ġæ±ī": 2858,
      "ace": 2859,
      "Ġæī¾åĪ°": 2860,
      "Ġcan": 2861,
      "Ġåħ´": 2862,
      "Ġæľ¬æĿ¥": 2863,
      "åĤ": 2864,
      "éĿĻ": 2865,
      "ĠèĶ": 2866,
      "ĠçŁ¥è¯Ĩ": 2867,
      "Ġæ°¸": 2868,
      "Ġæł¡": 2869,
      "éľĢ": 2870,
      "æľ¨": 2871,
      "å°Ħ": 2872,
      "å°Ĩ": 2873,
      "Ġåħ¨çĲĥ": 2874,
      "ĠæĽ´åĬł": 2875,
      "ĠåĪĨåĪ«": 2876,
      "èĸ": 2877,
      "Ġæİ¢": 2878,
      "åİŁ": 2879,
      "ĠéĹ´": 2880,
      "ĠèĢĮæĺ¯": 2881,
      "Ġåģ¶": 2882,
      "out": 2883,
      "æ±ģ": 2884,
      "åºĨ": 2885,
      "ä¸Ńå¿ĥ": 2886,
      "ä»ĺ": 2887,
      "ĠéĶħ": 2888,
      "ib": 2889,
      "ĠäºĽ": 2890,
      "Ġä¿ĿæĮģ": 2891,
      "ction": 2892,
      "è¾Ĩ": 2893,
      "Ġåºķ": 2894,
      "Ġä¸ĩåħĥ": 2895,
      "ie": 2896,
      "½Ĳ": 2897,
      "ĠçĨŁ": 2898,
      "Ġæł¼": 2899,
      "Ġé¢Ĩå¯¼": 2900,
      "ĠåĵĪåĵĪ": 2901,
      "ĠçĽ¸å¯¹": 2902,
      "Ġæ¯į": 2903,
      "ĠæĳĦ": 2904,
      "ç¬ĳ": 2905,
      "Ġman": 2906,
      "ĠéĢŁåº¦": 2907,
      "åħį": 2908,
      "Ġåįķä½į": 2909,
      "Ġç½ĳç«Ļ": 2910,
      "ĠçĽ®æłĩ": 2911,
      "æĿŁ": 2912,
      "åİĭ": 2913,
      "çł´": 2914,
      "Ġä¼ĳ": 2915,
      "Ġçĵ": 2916,
      "velop": 2917,
      "ack": 2918,
      "Ġåŀ": 2919,
      "Ġout": 2920,
      "æ´¾": 2921,
      "ĠåĶ¯": 2922,
      "Ġåħĭ": 2923,
      "Ġå¤§æ¦Ĥ": 2924,
      "Ġä¸ĭåįĪ": 2925,
      "ä½³": 2926,
      "éĢģ": 2927,
      "Ġç²¾ç¥ŀ": 2928,
      "Ġç¤¾åĮº": 2929,
      "Ġä¸ĥ": 2930,
      "ĠåºĶçĶ¨": 2931,
      "Ġä¹ħ": 2932,
      "Ġåħļ": 2933,
      "æ¸©": 2934,
      "Ġèĭ±åĽ½": 2935,
      "Ġä¸¥éĩį": 2936,
      "Ġäºī": 2937,
      "Ġéĵ¶è¡Į": 2938,
      "Ġåł": 2939,
      "ĠæĿ¡ä»¶": 2940,
      "Ġäºĳ": 2941,
      "åĪ¸": 2942,
      "ĠæŀĹ": 2943,
      "ĠçĲĨè§£": 2944,
      "Ġä¸´": 2945,
      "ĠåĴĸ": 2946,
      "pt": 2947,
      "Ġåħ·ä½ĵ": 2948,
      "ĠCh": 2949,
      "ĠçŃ¾": 2950,
      "ĠèĳĹ": 2951,
      "æīĺ": 2952,
      "å¾®": 2953,
      "å·®": 2954,
      "ĠåıĤä¸İ": 2955,
      "Ġä¸ĭæĿ¥": 2956,
      "±ä¹Ĳ": 2957,
      "Ġè°ĥæŁ¥": 2958,
      "Ġhis": 2959,
      "èģĶç½ĳ": 2960,
      "Ġå¦ĤæŃ¤": 2961,
      "ĠæŃ£å¸¸": 2962,
      "Ġéĺ¶": 2963,
      "Ġæ³¢": 2964,
      "ĠèµĦéĩĳ": 2965,
      "Ġæł¹æľ¬": 2966,
      "ĠéĢĲ": 2967,
      "Ġåį«": 2968,
      "ĠçıŃ": 2969,
      "æĦ¿": 2970,
      "å¹ķ": 2971,
      "Ġå¢ŀéķ¿": 2972,
      "é¡¿": 2973,
      "ĠæľĿ": 2974,
      "Ġä¸įçĶ¨": 2975,
      "Ġå»ºç«ĭ": 2976,
      "Ġå»ºçŃĳ": 2977,
      "ä¸ĢæŃ¥": 2978,
      "Ġä¼Ĭ": 2979,
      "Ġä¸īä¸ª": 2980,
      "éĽ¨": 2981,
      "Ġar": 2982,
      "Ġå®¢æĪ·": 2983,
      "ĠéĻĲ": 2984,
      "å¾ģ": 2985,
      "Ġçī¹èī²": 2986,
      "ĠæĹģ": 2987,
      "so": 2988,
      "ĠæĿĳ": 2989,
      "Ġç¬Ķ": 2990,
      "ĠåĿĹ": 2991,
      "å§Ĳ": 2992,
      "æľ«": 2993,
      "å®Ĺ": 2994,
      "ĠæĿĢ": 2995,
      "å·Ŀ": 2996,
      "ĠåĪĨéĴŁ": 2997,
      "Ġä½ĵéªĮ": 2998,
      "²ģ": 2999,
      "Ġå¾®åįļ": 3000,
      "éĺ²": 3001,
      "Ġä»¥ä¸ĭ": 3002,
      "Ġéģ¿": 3003,
      "è°¢": 3004,
      "Ġå¤ªå¤ļ": 3005,
      "ĠæĬĹ": 3006,
      "ĠçĪ¶æ¯į": 3007,
      "æį¢": 3008,
      "Ġä¿ĿæĬ¤": 3009,
      "Ġæī¹": 3010,
      "Ġå±Ĥ": 3011,
      "éĩĬ": 3012,
      "è®¿": 3013,
      "åĩł": 3014,
      "ĠæĢģ": 3015,
      "å¼Ĥ": 3016,
      "ĠåıĺåĮĸ": 3017,
      "è½¬": 3018,
      "ress": 3019,
      "ign": 3020,
      "Ġup": 3021,
      "Ġä¹ł": 3022,
      "ĠæľºæŀĦ": 3023,
      "Ġint": 3024,
      "ĠæĹħæ¸¸": 3025,
      "çİ¯": 3026,
      "æ´ĭ": 3027,
      "ĠåİŁæĿ¥": 3028,
      "å¨ĺ": 3029,
      "ªåĬĽ": 3030,
      "Ġè´Ńä¹°": 3031,
      "Ġäº§ä¸ļ": 3032,
      "å°±": 3033,
      "Ġå½ĵåľ°": 3034,
      "Ġè®¨": 3035,
      "Ġé¾Ļ": 3036,
      "è´¥": 3037,
      "Ġå¹´è½»": 3038,
      "ĠæĽ¾ç»ı": 3039,
      "åħļ": 3040,
      "Ġoff": 3041,
      "Ġ+": 3042,
      "çĽŁ": 3043,
      "Ġé¢ľ": 3044,
      "Ġè¿ĩæĿ¥": 3045,
      "ĠéļıçĿĢ": 3046,
      "ord": 3047,
      "æ¹ĸ": 3048,
      "ĠåįģåĪĨ": 3049,
      "æ¯Ĵ": 3050,
      "Ġç§ģ": 3051,
      "ind": 3052,
      "ĠçĶµè¯Ŀ": 3053,
      "ue": 3054,
      "Ġåı¸": 3055,
      "Ġå¯Į": 3056,
      "Ġæ£ĢæŁ¥": 3057,
      "Ġå¥½å¤ļ": 3058,
      "åıª": 3059,
      "Ġéĩĳèŀį": 3060,
      "ĠåĪº": 3061,
      "åħµ": 3062,
      "å¤ľ": 3063,
      "ire": 3064,
      "Ġhad": 3065,
      "Ġåħ³éĶ®": 3066,
      "ĠæĬĺ": 3067,
      "æķħ": 3068,
      "è®Ń": 3069,
      "Ġä¼Ĺ": 3070,
      "Ġå¦Īå¦Ī": 3071,
      "æ²Ļ": 3072,
      "Ġç»¼": 3073,
      "æľĭåıĭ": 3074,
      "ä½Ļ": 3075,
      "Ġrec": 3076,
      "ĠæĮīçħ§": 3077,
      "Ġä¸ĢåĲį": 3078,
      "Ġæ¹ĸ": 3079,
      "²Į": 3080,
      "Ġwere": 3081,
      "ĠçŃīçŃī": 3082,
      "Ġæ¶ī": 3083,
      "ĠæľīæķĪ": 3084,
      "Ġèĥ¡": 3085,
      "Ġç»ĵæŀĦ": 3086,
      "Ġè¾ĵ": 3087,
      "Ġç¨ĭåº¦": 3088,
      "è½®": 3089,
      "ities": 3090,
      "Ġçº¯": 3091,
      "çīĻ": 3092,
      "Ġé¢ĨåŁŁ": 3093,
      "æĤī": 3094,
      "éģį": 3095,
      "åįĥ": 3096,
      "Ġæĺ¨å¤©": 3097,
      "Ġäº«": 3098,
      "Ġé£İæł¼": 3099,
      "Ġèŀį": 3100,
      "ĠäºĴèģĶç½ĳ": 3101,
      "Ġè®¡ç®Ĺ": 3102,
      "Ġäº¤æĺĵ": 3103,
      "ĠèĵĿ": 3104,
      "Ġæĺ¯åĽł": 3105,
      "ence": 3106,
      "å°ļ": 3107,
      "é¹": 3108,
      "ĠæĹłè®º": 3109,
      "form": 3110,
      "é¢Ĩ": 3111,
      "Ġäºĭä»¶": 3112,
      "Ġæĺ¯åĽłä¸º": 3113,
      "ke": 3114,
      "å³°": 3115,
      "Ġå¥ĩ": 3116,
      "ĠèĪĴ": 3117,
      "Ġå®½": 3118,
      "Ġå¥ĸ": 3119,
      "ĠéĽ¶": 3120,
      "Ġreg": 3121,
      "Ġç¬ĳ": 3122,
      "åįı": 3123,
      "èĲ¨": 3124,
      "ĠåĽ°": 3125,
      "Ġå·¥ç¨ĭ": 3126,
      "æ¥ļ": 3127,
      "Ġwork": 3128,
      "æĿĤ": 3129,
      "åĪļ": 3130,
      "Ġbeen": 3131,
      "Ġè¿ĺè¦ģ": 3132,
      "å®ģ": 3133,
      "Ġä¸Ģä¸ªäºº": 3134,
      "æ±ī": 3135,
      "Ġå¾Īä¸įéĶĻ": 3136,
      "Ġä¸ĬéĿ¢": 3137,
      "æĶ¯": 3138,
      "æīį": 3139,
      "ĠâĢĻ": 3140,
      "Ġæ¦Ĥ": 3141,
      "Ġæļ´": 3142,
      "çķĻ": 3143,
      "Ġç»Ŀå¯¹": 3144,
      "are": 3145,
      "ĠåĲĮæł·": 3146,
      "Ġæ¶¨": 3147,
      "ĠåĮ»çĶŁ": 3148,
      "ake": 3149,
      "ĠæĬĵ": 3150,
      "çħ": 3151,
      "ĠåĬªåĬĽ": 3152,
      "æ¡¥": 3153,
      "Ġæĸ°é²ľ": 3154,
      "Ġæİī": 3155,
      "Ġåħ¨éĥ¨": 3156,
      "nder": 3157,
      "Ġè§Ĩé¢ĳ": 3158,
      "é¥¼": 3159,
      "ates": 3160,
      "Ġè¿Ľåİ»": 3161,
      "æ½": 3162,
      "Ġç»ıåİĨ": 3163,
      "çĵľ": 3164,
      "ĠçĦ¶èĢĮ": 3165,
      "Ġå¿ĥçĲĨ": 3166,
      "ĠåĪĹ": 3167,
      "Ġè°¢": 3168,
      "Ġäº¤éĢļ": 3169,
      "Ġè§Ħå®ļ": 3170,
      "Ġç»ıéªĮ": 3171,
      "ĠåıĹåĪ°": 3172,
      "æīĵ": 3173,
      "ĠèĪª": 3174,
      "ĠæĢ»æĺ¯": 3175,
      "Ġä¸ĵå®¶": 3176,
      "ĠçĬ¶æĢģ": 3177,
      "ĠæĿĲ": 3178,
      "Ġè´´": 3179,
      "Ġæĸ°éĹ»": 3180,
      "ä¹¡": 3181,
      "Ġåĸľ": 3182,
      "ĠçªģçĦ¶": 3183,
      "å¸Ŀ": 3184,
      "Ġå¤§å¤ļ": 3185,
      "Ġå¼Ĥ": 3186,
      "Ġåĳµ": 3187,
      "ĠX": 3188,
      "Ġæĸ¹ä¾¿": 3189,
      "ĠæĬ¢": 3190,
      "Ġæ±½è½¦": 3191,
      "Ġç½ĳä¸Ĭ": 3192,
      "Ġç³»åĪĹ": 3193,
      "Ġæ¶Īæģ¯": 3194,
      "æĹ©": 3195,
      "ĠæĦ¿": 3196,
      "Ġæ¬¾": 3197,
      "ĠåĲįåŃĹ": 3198,
      "èĭ±": 3199,
      "Ġdevelop": 3200,
      "Ġä¹Ŀ": 3201,
      "ime": 3202,
      "ĠæĬ¤": 3203,
      "åħ«": 3204,
      "èī¯": 3205,
      "çĶ°": 3206,
      "ments": 3207,
      "ĠèģĬ": 3208,
      "Ġåĳ½": 3209,
      "ang": 3210,
      "ĠÐ¾": 3211,
      "Ġå¤§éĩı": 3212,
      "è¾£": 3213,
      "ĠåĪ¤": 3214,
      "Ġqu": 3215,
      "Ġte": 3216,
      "ĠæıĲåįĩ": 3217,
      "Ġå¥³æĢ§": 3218,
      "ĠéŁ©åĽ½": 3219,
      "ĠæľĢé«ĺ": 3220,
      "çĹĩ": 3221,
      "Ġå°ģ": 3222,
      "ĠæŃ£å¼ı": 3223,
      "èĪª": 3224,
      "act": 3225,
      "éĻį": 3226,
      "ited": 3227,
      "åĪĿ": 3228,
      "Ġåķ¥": 3229,
      "ä¸įå¤ļ": 3230,
      "Ġè´£": 3231,
      "Ġå¹¸": 3232,
      "ĠèµĦæºĲ": 3233,
      "Ġæİ¨åĩº": 3234,
      "Ġpe": 3235,
      "ĠæĶ¹åıĺ": 3236,
      "æľĿ": 3237,
      "Ġä½Ļ": 3238,
      "Ġä»¥æĿ¥": 3239,
      "Ġè¿Ŀ": 3240,
      "Ġbut": 3241,
      "Ġèĭ¥": 3242,
      "Ġæ±Ĥ": 3243,
      "Ġçħ§çīĩ": 3244,
      "Ġæī©": 3245,
      "Ġæ¨": 3246,
      "Ġè·³": 3247,
      "Ġå±Ģ": 3248,
      "Ġæĸĩç«ł": 3249,
      "ĠãĢĳ": 3250,
      "å¼Ł": 3251,
      "Ġç¨į": 3252,
      "Ġå¾Īåĸľæ¬¢": 3253,
      "ĠãĢĲ": 3254,
      "ĠæĢģåº¦": 3255,
      "Ġco": 3256,
      "ĠéĴĪå¯¹": 3257,
      "Ġå¯Ĩ": 3258,
      "åĳµ": 3259,
      "è´µ": 3260,
      "Ġå»¶": 3261,
      "Ġé¡¾": 3262,
      "æİī": 3263,
      "ĠèĦĳ": 3264,
      "Ġdo": 3265,
      "éļľ": 3266,
      "Ġä»½": 3267,
      "Ġtra": 3268,
      "ĠåİĭåĬĽ": 3269,
      "Ġacc": 3270,
      "ç½ª": 3271,
      "ĠåĲ´": 3272,
      "Ġä¼°è®¡": 3273,
      "çĥ§": 3274,
      "é¾Ħ": 3275,
      "Ġåº§": 3276,
      "å¼¹": 3277,
      "Ġçºª": 3278,
      "Ġsaid": 3279,
      "ç«¥": 3280,
      "Ġä¸įå¾Ĺ": 3281,
      "ĠæĹ¶ä»£": 3282,
      "Ġåį±": 3283,
      "çĽĸ": 3284,
      "èĥľ": 3285,
      "éĻĨ": 3286,
      "æĶ¹": 3287,
      "Ġpol": 3288,
      "æľª": 3289,
      "ĠéĩįçĤ¹": 3290,
      "åķ¡": 3291,
      "ĠæĲľ": 3292,
      "ition": 3293,
      "Ġç¨³å®ļ": 3294,
      "Ġæ³¡": 3295,
      "Ġç«Ł": 3296,
      "Ġyear": 3297,
      "Ġè£ħä¿®": 3298,
      "ĠèģĶç³»": 3299,
      "æĥ¯": 3300,
      "erv": 3301,
      "ĠâĢķ": 3302,
      "èħĲ": 3303,
      "Ġåħįè´¹": 3304,
      "Ġç´ł": 3305,
      "Ġè¸": 3306,
      "ä¸»ä¹ī": 3307,
      "èĭ¦": 3308,
      "Ġæľ¬èº«": 3309,
      "Ġalso": 3310,
      "Ġå®¹æĺĵ": 3311,
      "Ġæĵįä½ľ": 3312,
      "Ġç§ĳåŃ¦": 3313,
      "Ġäº¿åħĥ": 3314,
      "Ġè¿Ļæľ¬": 3315,
      "éĽĨåĽ¢": 3316,
      "Ġå¾Īå¥½åĲĥ": 3317,
      "Ġexp": 3318,
      "Ġä¿ĥ": 3319,
      "Ġå·®ä¸įå¤ļ": 3320,
      "å®Ī": 3321,
      "Ġèįī": 3322,
      "ĠåĪ¶ä½ľ": 3323,
      "æĻ®": 3324,
      "æ¶²": 3325,
      "vern": 3326,
      "iss": 3327,
      "Ġèī¯": 3328,
      "Ġæĥ³è¦ģ": 3329,
      "Ġè¯´æĺİ": 3330,
      "Ġä¸įåĪ°": 3331,
      "Ġæķĳ": 3332,
      "Ġå¹¶ä¸į": 3333,
      "Ġus": 3334,
      "Ġprov": 3335,
      "ĠæĻ¯": 3336,
      "ĠæĶ¶åħ¥": 3337,
      "è¯¾": 3338,
      "ĠçľĭçĿĢ": 3339,
      "æĸĹ": 3340,
      "Ġçº¸": 3341,
      "å®¹æĺĵ": 3342,
      "omm": 3343,
      "Ġ!": 3344,
      "Ġother": 3345,
      "Ġå´": 3346,
      "ree": 3347,
      "ram": 3348,
      "Ġåĩī": 3349,
      "Ġæĸ¹åĲĳ": 3350,
      "ĠæĶ»": 3351,
      "å·²": 3352,
      "ĠçīĽèĤī": 3353,
      "ild": 3354,
      "ĠçŃĶæ¡Ī": 3355,
      "ĠéģĹ": 3356,
      "Ġcl": 3357,
      "å¤®": 3358,
      "Ġæģ¶": 3359,
      "Ġä¸Ģæ®µ": 3360,
      "Ġwho": 3361,
      "Ġthey": 3362,
      "æ¶¦": 3363,
      "Ġé¡¶": 3364,
      "Ġå¯»": 3365,
      "æ¿Ģ": 3366,
      "Ġèľ": 3367,
      "Ġåİļ": 3368,
      "ase": 3369,
      "ĠæĶ¿æ²»": 3370,
      "åħŃ": 3371,
      "Ġç±»ä¼¼": 3372,
      "ĠèĦ±": 3373,
      "Ġè°ĥæķ´": 3374,
      "Ġæķ´ä½ĵ": 3375,
      "ĠçĽ¸æ¯Ķ": 3376,
      "å¡Ķ": 3377,
      "Ġæ¯ķç«Ł": 3378,
      "ĠèĦļ": 3379,
      "ĠåĲ¸å¼ķ": 3380,
      "Ġçŀ": 3381,
      "æī¹": 3382,
      "Ġpre": 3383,
      "Ġäº¦": 3384,
      "ĠæĽ´å¥½": 3385,
      "Ġæ¾": 3386,
      "Ġä¸Ńå¿ĥ": 3387,
      "èįī": 3388,
      "çİ©": 3389,
      "Ġæ¶Īè´¹èĢħ": 3390,
      "Ġso": 3391,
      "åģļ": 3392,
      "ĠçĮª": 3393,
      "anc": 3394,
      "ĠéģŃ": 3395,
      "ĠåĪĽæĸ°": 3396,
      "è¯º": 3397,
      "Ġä¿Ħ": 3398,
      "äº«": 3399,
      "çĪ¸": 3400,
      "ĠåĿļæĮģ": 3401,
      "Ġå¹¿åĳĬ": 3402,
      "äººåĳĺ": 3403,
      "èľ": 3404,
      "Ġèı": 3405,
      "é¥°": 3406,
      "Ġèĩ³å°ĳ": 3407,
      "æ¤Ĵ": 3408,
      "æ¸Ĳ": 3409,
      "Ġå¤ľ": 3410,
      "Ġçİ°ä»£": 3411,
      "Ġç¯": 3412,
      "ä¼¦": 3413,
      "Ġè®¤è¯Ĩ": 3414,
      "ĠTh": 3415,
      "ĠQ": 3416,
      "é¼": 3417,
      "Ġä¸ĢæĿ¡": 3418,
      "çĹĽ": 3419,
      "ĠèĮĥåĽ´": 3420,
      "Ġæ²ī": 3421,
      "ĠæŀĦ": 3422,
      "åŃ¦éĻ¢": 3423,
      "Ġæ³ķå¾ĭ": 3424,
      "Ġè¯Ħä»·": 3425,
      "Ġç¥¨": 3426,
      "Ġå¾Īå¤ļäºº": 3427,
      "ĠçĶµåŃĲ": 3428,
      "ian": 3429,
      "äº¡": 3430,
      "Ġåĳµåĳµ": 3431,
      "Ġä¸įå¤Ł": 3432,
      "Ġè®°å¾Ĺ": 3433,
      "ä¸¤": 3434,
      "ç¤¼": 3435,
      "ĠæĿ¥çľĭ": 3436,
      "Ġè®Ń": 3437,
      "Ġæ·¡": 3438,
      "Ġèµŀ": 3439,
      "ĠåĴ¸": 3440,
      "Ġè¶ĬæĿ¥è¶Ĭ": 3441,
      "Ġæ¡Ī": 3442,
      "Ġèĩ´": 3443,
      "ish": 3444,
      "Ġç»ıèĲ¥": 3445,
      "åĨĻ": 3446,
      "æĸ¹éĿ¢": 3447,
      "Ġå¤Ł": 3448,
      "çĺ": 3449,
      "Ġwould": 3450,
      "ĠçĪ¸": 3451,
      "Ġé£Łçī©": 3452,
      "Ġç®Ĺæĺ¯": 3453,
      "å¿Ĩ": 3454,
      "ĠæĳĨ": 3455,
      "Ġä¸ĭéĿ¢": 3456,
      "ĠæĬ½": 3457,
      "ĠæĦŁåıĹ": 3458,
      "ĠéļĶ": 3459,
      "Ġé£İéĻ©": 3460,
      "å¼ĥ": 3461,
      "ĠéĨ": 3462,
      "Ġå¯¹æĸ¹": 3463,
      "Ġè¯Ħè®º": 3464,
      "Ġä»¥ä¸º": 3465,
      "Ġå¨ģ": 3466,
      "é¡¾": 3467,
      "ĠæĦıä¹ī": 3468,
      "ĠåĽ´": 3469,
      "Ġå¼ķèµ·": 3470,
      "Ġæıı": 3471,
      "Ġå¹¿å·ŀ": 3472,
      "Ġå®¶éĩĮ": 3473,
      "æĮ¥": 3474,
      "Ġç§¯æŀģ": 3475,
      "Ġçİī": 3476,
      "Ġcons": 3477,
      "Ġmore": 3478,
      "Ġunder": 3479,
      "è¿·": 3480,
      "Ġç½ĳåıĭ": 3481,
      "Ġç»ĵæĿŁ": 3482,
      "Ġçļĩ": 3483,
      "æħ¢": 3484,
      "åºĵ": 3485,
      "Ġè¿Ľä¸ĢæŃ¥": 3486,
      "ĠåŃĲ": 3487,
      "ĠåĨ¬": 3488,
      "æ£®": 3489,
      "Ġç£": 3490,
      "Ġone": 3491,
      "ĠçĬ¯": 3492,
      "Ġäººåı£": 3493,
      "ĠéģĩåĪ°": 3494,
      "ĠåĳĢ": 3495,
      "ĠæģĲ": 3496,
      "æ±ł": 3497,
      "lud": 3498,
      "ĠæĮĤ": 3499,
      "Ġç»Īäºİ": 3500,
      "ĠåĽŀæĿ¥": 3501,
      "Ġä¸įå¦Ĥ": 3502,
      "ä¸ĸçķĮ": 3503,
      "Ġä¸Ģå®ļè¦ģ": 3504,
      "ĠåĶ±": 3505,
      "Ġå¹³æĹ¶": 3506,
      "ĠåĽŀå®¶": 3507,
      "Ġå®Ŀå®Ŀ": 3508,
      "æī¾": 3509,
      "é¦ĸ": 3510,
      "Ġæ»¡è¶³": 3511,
      "ç»Ŀ": 3512,
      "å©Ĩ": 3513,
      "å¨ģ": 3514,
      "ĠçĲĨè®º": 3515,
      "Ġäº®": 3516,
      "Ġå¤§éĥ¨åĪĨ": 3517,
      "ä¸įåĪ°": 3518,
      "Ġéª¨": 3519,
      "Ġè¶ħçº§": 3520,
      "Ġä¸°å¯Į": 3521,
      "åİĤ": 3522,
      "Ġæ»ĳ": 3523,
      "å®«": 3524,
      "ĠåĽłç´ł": 3525,
      "ĠæįŁ": 3526,
      "ric": 3527,
      "ĠæŃ¤å¤ĸ": 3528,
      "å²ģ": 3529,
      "Ġ*": 3530,
      "ĠåŃĻ": 3531,
      "Ġå¾®ä¿¡": 3532,
      "Ġé©¾": 3533,
      "ĠæĮģç»Ń": 3534,
      "Ġéħ±": 3535,
      "Ġå±ħçĦ¶": 3536,
      "åı¶": 3537,
      "ĠèĻ¾": 3538,
      "ons": 3539,
      "éĨĴ": 3540,
      "éĽħ": 3541,
      "au": 3542,
      "ĠæĹ¶æľŁ": 3543,
      "Ġç¤¼": 3544,
      "ĠæĪĲæľ¬": 3545,
      "èĳĹ": 3546,
      "Ġè·Ŀ": 3547,
      "Ġç»¼åĲĪ": 3548,
      "Ġä¸ŃåįĪ": 3549,
      "ĠæĬ±": 3550,
      "Ġéĺ¶æ®µ": 3551,
      "ĠçĽ®çļĦ": 3552,
      "Ġæķ£": 3553,
      "Ġæ¢¦": 3554,
      "fe": 3555,
      "ä¸Ģæł·": 3556,
      "ç¼ĸ": 3557,
      "ĠéĢĽ": 3558,
      "Ġè®¾å¤ĩ": 3559,
      "Ġæľ¬äºº": 3560,
      "Ġåľ¨è¿ĻéĩĮ": 3561,
      "Ġèİ«": 3562,
      "Ġæĺĵ": 3563,
      "ĠåĶ¯ä¸Ģ": 3564,
      "Ġå§Ķ": 3565,
      "ä»¤": 3566,
      "Ġå¿ĺ": 3567,
      "ĠæĢ¥": 3568,
      "Ġcount": 3569,
      "ä¸ģ": 3570,
      "æ·±": 3571,
      "Ġæĸ½": 3572,
      "ĠåĪ·": 3573,
      "æ¶¨": 3574,
      "Ġact": 3575,
      "æĺł": 3576,
      "Ġåĩıå°ĳ": 3577,
      "æĢ»": 3578,
      "ĠåĬłåħ¥": 3579,
      "èħ¿": 3580,
      "av": 3581,
      "éŃ": 3582,
      "Ġèµµ": 3583,
      "è¯¢": 3584,
      "è¿ª": 3585,
      "ĠéĿ¢å¯¹": 3586,
      "ens": 3587,
      "ĠæĿĤ": 3588,
      "ĠéĤ£éĩĮ": 3589,
      "ç¬Ķ": 3590,
      "Ġä½ľèĢħ": 3591,
      "æĬĺ": 3592,
      "Ġè´£ä»»": 3593,
      "Ġä¸Ĭå¸Ĥ": 3594,
      "ĠÐ¸": 3595,
      "Ġçģµ": 3596,
      "Ġä¹ĺ": 3597,
      "Ġæĭ¼": 3598,
      "Ġåľ£": 3599,
      "ĠèĢĥè¯ķ": 3600,
      "ĠèĩªçĶ±": 3601,
      "ç¨İ": 3602,
      "ĠæĪĲç«ĭ": 3603,
      "Ġå¸Ī": 3604,
      "Ġè®Ńç»ĥ": 3605,
      "ual": 3606,
      "Ġind": 3607,
      "Ġä¼ĺåĬ¿": 3608,
      "å«": 3609,
      "Ġå°±èĥ½": 3610,
      "æ¯Ľ": 3611,
      "Ġç«ŀäºī": 3612,
      "Ġåį°è±¡": 3613,
      "¹ģ": 3614,
      "ĠåĲĮäºĭ": 3615,
      "èĭı": 3616,
      "åĲ¬": 3617,
      "Ġåħ±åĲĮ": 3618,
      "éħ±": 3619,
      "Ġsec": 3620,
      "Ġå¥³çĶŁ": 3621,
      "åĪĽ": 3622,
      "ach": 3623,
      "åį·": 3624,
      "ĠèģĮä¸ļ": 3625,
      "ĠéļĲ": 3626,
      "éĿĴ": 3627,
      "éķľ": 3628,
      "ond": 3629,
      "Ġè½¯ä»¶": 3630,
      "ĠåķĨä¸ļ": 3631,
      "å§Ĩ": 3632,
      "ç®±": 3633,
      "Ġåĳ¼": 3634,
      "Ġè¡£æľį": 3635,
      "ĠèĢ³": 3636,
      "Ġçĺ": 3637,
      "ĠæĤ£èĢħ": 3638,
      "ater": 3639,
      "Ġam": 3640,
      "Ġçĩ": 3641,
      "Ġéķ¿æľŁ": 3642,
      "Ġè¿Ļå®¶åºĹ": 3643,
      "ĠçĹĽ": 3644,
      "éģĩ": 3645,
      "ĠÐ°": 3646,
      "é»Ħ": 3647,
      "ĠåĨ³": 3648,
      "Ġäººç±»": 3649,
      "ĠåĺĽ": 3650,
      "Ġè¯Ńè¨Ģ": 3651,
      "ĠåĲ¯": 3652,
      "Ġå¹¶æ²¡æľī": 3653,
      "Ġåı³": 3654,
      "å±Ĭ": 3655,
      "å¤§åĪ©": 3656,
      "int": 3657,
      "Ġå½Ĵ": 3658,
      "Ġä¼¼ä¹İ": 3659,
      "Ġè¡¨æĺİ": 3660,
      "Ġ&": 3661,
      "ĠåĦ¿åŃĲ": 3662,
      "ĠçĽĺ": 3663,
      "ĠçĤ¸": 3664,
      "èĵ": 3665,
      "ĠåİĤ": 3666,
      "è¯¯": 3667,
      "å¦¹": 3668,
      "ĠåŃ£": 3669,
      "ĠåĮºåŁŁ": 3670,
      "ass": 3671,
      "è´Ŀ": 3672,
      "æ´ģ": 3673,
      "ors": 3674,
      "Ġé¤Ĳåİħ": 3675,
      "ĠæĪª": 3676,
      "ame": 3677,
      "Ġçĳ": 3678,
      "pport": 3679,
      "Ġäººå®¶": 3680,
      "ĠçĶµèĦĳ": 3681,
      "æĥľ": 3682,
      "å¾Ī": 3683,
      "æķ¢": 3684,
      "åħĪçĶŁ": 3685,
      "ĠæīĢè°ĵ": 3686,
      "Ġç´¯": 3687,
      "Ġäºĭå®ŀ": 3688,
      "å¥¥": 3689,
      "ĠèĤ¥": 3690,
      "ä»ģ": 3691,
      "Ġä¹ĭç±»": 3692,
      "ĠæĲŃéħį": 3693,
      "ĠèĤĮ": 3694,
      "ıį": 3695,
      "å¦Ĩ": 3696,
      "ĠæĪĲç»©": 3697,
      "æľĹ": 3698,
      "ark": 3699,
      "åıį": 3700,
      "Ġä¿Ŀè¯ģ": 3701,
      "åºĬ": 3702,
      "Ġç»ĵåĲĪ": 3703,
      "æĻº": 3704,
      "Ġä¹łæĥ¯": 3705,
      "Ġéĺħ": 3706,
      "ile": 3707,
      "Ġä¸įåı¯": 3708,
      "ç¢Ĺ": 3709,
      "Ġèĥľ": 3710,
      "ĠæİĮ": 3711,
      "Ġçīĩ": 3712,
      "Ġä¸ĬæĿ¥": 3713,
      "ĠæĿ¾": 3714,
      "Ġç§ĭ": 3715,
      "ĠåĽº": 3716,
      "Ġç¦ģ": 3717,
      "ĠåĪĴ": 3718,
      "ĠUn": 3719,
      "Ġéĺ³": 3720,
      "Ġåħ¨éĿ¢": 3721,
      "Ġright": 3722,
      "ĠåĶĲ": 3723,
      "è§¦": 3724,
      "Ġnew": 3725,
      "Ġäººå£«": 3726,
      "å¾Ħ": 3727,
      "Ġéĺ´": 3728,
      "ä¼´": 3729,
      "Ġé¢ĳ": 3730,
      "ä¸´": 3731,
      "Ġæ¬¢": 3732,
      "ĠåĲī": 3733,
      "çĴ": 3734,
      "å¿ħ": 3735,
      "ĠåĨł": 3736,
      "Ġæ¸¯": 3737,
      "ĠåĴĸåķ¡": 3738,
      "Ġass": 3739,
      "Ġåį³ä½¿": 3740,
      "Ġæ´¾": 3741,
      "Ġeff": 3742,
      "Ġro": 3743,
      "Ġå¤ĸéĿ¢": 3744,
      "Ġå¹´ä»£": 3745,
      "ĠåĪ¶åº¦": 3746,
      "ĠæĿĲæĸĻ": 3747,
      "ĠåıĺæĪĲ": 3748,
      "Ġè§£éĩĬ": 3749,
      "Ġé¢ľèī²": 3750,
      "Ġæ¯«": 3751,
      "ĠåĨįæ¬¡": 3752,
      "ĠÐµ": 3753,
      "ĠçĶ³è¯·": 3754,
      "ĠåĳĪ": 3755,
      "ĠçĽ¸ä¿¡": 3756,
      "Ġç»ĥ": 3757,
      "ail": 3758,
      "ä¼Ļ": 3759,
      "ĠæŃ¥": 3760,
      "Ġå°ļ": 3761,
      "äºĪ": 3762,
      "Ġè¿·": 3763,
      "very": 3764,
      "Ġä¸ĭåİ»": 3765,
      "ĠæĹģè¾¹": 3766,
      "ĠåĪĽä¸ļ": 3767,
      "Ġæ¬§æ´²": 3768,
      "ĠåľĨ": 3769,
      "çĬ": 3770,
      "aw": 3771,
      "Ġli": 3772,
      "æłĳ": 3773,
      "Ġå¹³åĿĩ": 3774,
      "ä¸Ģèµ·": 3775,
      "ose": 3776,
      "ĠçĶ·äºº": 3777,
      "åħħ": 3778,
      "Ġinclud": 3779,
      "Ġä¹Łè®¸": 3780,
      "Ġthere": 3781,
      "Ġè¡Ĺ": 3782,
      "Ġä»ĺ": 3783,
      "vent": 3784,
      "çĶ·": 3785,
      "è¿ŀ": 3786,
      "ĠéĿ¢ç§¯": 3787,
      "ĠéħĴåºĹ": 3788,
      "yst": 3789,
      "Ġä¹Į": 3790,
      "é£ŀ": 3791,
      "Ġè®¢": 3792,
      "èİ·": 3793,
      "çĩ": 3794,
      "Ġåľ¨ä¸Ģèµ·": 3795,
      "Ġå®ĥä»¬": 3796,
      "ject": 3797,
      "Ġè¯į": 3798,
      "Ġåİ¿": 3799,
      "Ġsc": 3800,
      "ĠåĹ": 3801,
      "æĢ¥": 3802,
      "ĠçĭĹ": 3803,
      "æĿĢ": 3804,
      "Ġçļ®èĤ¤": 3805,
      "Ġover": 3806,
      "Ġæµª": 3807,
      "ĠéĽª": 3808,
      "ĠçĲĥéĺŁ": 3809,
      "Ġä¼ĺæĥł": 3810,
      "Ġä¸įç®¡": 3811,
      "ĠèĻļ": 3812,
      "ĠåĬ³": 3813,
      "Ġä¸Ģå¤©": 3814,
      "çĶ²": 3815,
      "ener": 3816,
      "Ġä¸ºä¸»": 3817,
      "Ġéĩįæĸ°": 3818,
      "Ġå¾·åĽ½": 3819,
      "Ġä¸įå¤§": 3820,
      "Ġå¾Īå°ĳ": 3821,
      "ĠåŁºéĩĳ": 3822,
      "Ġä¾ĿçĦ¶": 3823,
      "Ġä¸Ģå¼ł": 3824,
      "éĽ·": 3825,
      "èĥŀ": 3826,
      "¹æŀľ": 3827,
      "Ġç³ĸ": 3828,
      "ĠèĬĤçĽ®": 3829,
      "ĠçīĮ": 3830,
      "éĽĦ": 3831,
      "é©¶": 3832,
      "åīĤ": 3833,
      "ĠçĶŁæĦı": 3834,
      "ĠäººçĶŁ": 3835,
      "ĠéĻ¢": 3836,
      "ĠçĪ¶äº²": 3837,
      "Ġæ³ķåĽ½": 3838,
      "ä¸Ģæ¬¡": 3839,
      "Ġå®ŀæĸ½": 3840,
      "ç§»": 3841,
      "Ġäº¬": 3842,
      "Ġçİ°è±¡": 3843,
      "Ġç¡®å®ļ": 3844,
      "Ġèĭ±è¯Ń": 3845,
      "ç¯ĩ": 3846,
      "çģµ": 3847,
      "ç£": 3848,
      "Ġå°±åĥı": 3849,
      "åĸľ": 3850,
      "Ġä¸ĢåĪĩ": 3851,
      "ĠæĿ¥åĪ°": 3852,
      "Ġéĥĳ": 3853,
      "Ġäº«åıĹ": 3854,
      "Ġä¸Ģæľ¬": 3855,
      "æ°ı": 3856,
      "ĠæĬµ": 3857,
      "Ġå®¶éķ¿": 3858,
      "ĠæŃ¤æ¬¡": 3859,
      "å¾Īå¤ļ": 3860,
      "ĠçĲĥåĳĺ": 3861,
      "çĤİ": 3862,
      "Ġå®£ä¼ł": 3863,
      "ĠèģĶåĲĪ": 3864,
      "ä¸¾": 3865,
      "ĠåıįåºĶ": 3866,
      "ä¹±": 3867,
      "ook": 3868,
      "Ġåı£æĦŁ": 3869,
      "Ġå«©": 3870,
      "æ´¥": 3871,
      "Ġéĩİ": 3872,
      "Ġåº¦": 3873,
      "çº¸": 3874,
      "å¦ĩ": 3875,
      "æĳĦ": 3876,
      "Ġçĭ¬ç«ĭ": 3877,
      "æı¡": 3878,
      "åĨĮ": 3879,
      "Ġè¿Ļæľ¬ä¹¦": 3880,
      "ĠæĸĻ": 3881,
      "ĠæĦ¿æĦı": 3882,
      "åģ¥": 3883,
      "ĠéĿ¢åĮħ": 3884,
      "Ġå½ķ": 3885,
      "è°Ī": 3886,
      "Ġæ³°": 3887,
      "Ġçº§": 3888,
      "ĠæĹ¶å°ļ": 3889,
      "è½¯": 3890,
      "Ġå®¤": 3891,
      "ç³ĸ": 3892,
      "ç²¾": 3893,
      "æĢª": 3894,
      "Ġä¸¤äºº": 3895,
      "Ġå¼Ģå±ķ": 3896,
      "ĠåĽ¢éĺŁ": 3897,
      "ĠèµĦæĸĻ": 3898,
      "Ġå¥³åĦ¿": 3899,
      "èĦ¸": 3900,
      "Ġæľ±": 3901,
      "ĠæĶ¾åľ¨": 3902,
      "æĹ§": 3903,
      "ory": 3904,
      "ĠåĪ¶éĢł": 3905,
      "ĠéĻĨ": 3906,
      "ĠåĬ©": 3907,
      "éĩİ": 3908,
      "Ġç²īä¸Ŀ": 3909,
      "Ġç¬¦": 3910,
      "Ġå½¢å¼ı": 3911,
      "ĠæĹ§": 3912,
      "æ¡£": 3913,
      "ĠåĲ¦": 3914,
      "ī´": 3915,
      "æĩĤ": 3916,
      "ç±į": 3917,
      "æ·¡": 3918,
      "reat": 3919,
      "Ġå¼Ħ": 3920,
      "Ġæ½ľ": 3921,
      "çĨŁ": 3922,
      "Ġå¦¹": 3923,
      "Ġå¼¹": 3924,
      "Ġæ¾³": 3925,
      "Ġrel": 3926,
      "åľ³": 3927,
      "Ġè¯ģæĺİ": 3928,
      "Ġå¾Īéļ¾": 3929,
      "è¿¹": 3930,
      "Ł¹": 3931,
      "Ġè¯¦": 3932,
      "ĠæĻºèĥ½": 3933,
      "Ġå¥½å¥½": 3934,
      "ĠæĦıè§ģ": 3935,
      "ĠéĽ·": 3936,
      "ä¼¯": 3937,
      "è´¢": 3938,
      "Ġèĭ¹æŀľ": 3939,
      "ternational": 3940,
      "Ġå¥³äºº": 3941,
      "Ġå½©": 3942,
      "èª": 3943,
      "Ġæĺ¨æĹ¥": 3944,
      "åĭĴ": 3945,
      "çĿ£": 3946,
      "Ġ_": 3947,
      "ph": 3948,
      "Ġæł·åŃĲ": 3949,
      "åĪ¤": 3950,
      "Ġå°½ç®¡": 3951,
      "Ġåıĸå¾Ĺ": 3952,
      "ĠéĻįä½İ": 3953,
      "èĦļ": 3954,
      "åĬ±": 3955,
      "æģĭ": 3956,
      "Ġæ¸ħæ¥ļ": 3957,
      "ĠéĢļå¸¸": 3958,
      "éĽª": 3959,
      "Ġåĩłå¹´": 3960,
      "Ġæłĳ": 3961,
      "ĠåĶ®": 3962,
      "æĵ": 3963,
      "Ġtr": 3964,
      "Ġèĭ¦": 3965,
      "ä¾§": 3966,
      "enc": 3967,
      "ĠæĢ»ä½ĵ": 3968,
      "ĠèĦĨ": 3969,
      "Ġåĳĺ": 3970,
      "æģ©": 3971,
      "Ġè¿ĲèĲ¥": 3972,
      "æįŁ": 3973,
      "Ġè½®": 3974,
      "Ġäº¤æµģ": 3975,
      "uc": 3976,
      "ĠçľĭæĿ¥": 3977,
      "èĩªå·±": 3978,
      "ident": 3979,
      "Ġä½Ľ": 3980,
      "Ġæ·±åľ³": 3981,
      "Ġä¸ĭéĻį": 3982,
      "Ġè¿ĺåľ¨": 3983,
      "èĤ¥": 3984,
      "æķĳ": 3985,
      "æĹ¦": 3986,
      "éĺµ": 3987,
      "Ġreport": 3988,
      "ite": 3989,
      "Ġèº«ä»½": 3990,
      "Ġsub": 3991,
      "èıĮ": 3992,
      "ç¾İåħĥ": 3993,
      "ĠåĬłå¼º": 3994,
      "åĶ±": 3995,
      "Ġèĩ³äºİ": 3996,
      "vernment": 3997,
      "ution": 3998,
      "å·§": 3999,
      "Ġem": 4000,
      "Ġç»ıåħ¸": 4001,
      "Ġæł¸å¿ĥ": 4002,
      "Ġè¿ĺä¼ļ": 4003,
      "Ġå°Ŀè¯ķ": 4004,
      "Ġé¥±": 4005,
      "Ġä¸¾è¡Į": 4006,
      "Ġæĸ¹æ¡Ī": 4007,
      "éĻĲåħ¬åı¸": 4008,
      "Ġä¸įè¶³": 4009,
      "ĠèĸĦ": 4010,
      "Ġè¦": 4011,
      "Ġæ®µ": 4012,
      "Ġå°±è¦ģ": 4013,
      "Ġæľīå¾Īå¤ļ": 4014,
      "Ġé«ĺä¸Ń": 4015,
      "Ġæĺİç¡®": 4016,
      "ĠåĽ¾çīĩ": 4017,
      "Ġè¶ĭ": 4018,
      "ĠåķĨåĵģ": 4019,
      "Ġå¾Ĳ": 4020,
      "éĵ¶è¡Į": 4021,
      "ĠèĢģåħ¬": 4022,
      "ystem": 4023,
      "åĨį": 4024,
      "Ġå¾Īå¿«": 4025,
      "ĠåŁºæľ¬ä¸Ĭ": 4026,
      "Ġäººçī©": 4027,
      "Ġå®ŀéªĮ": 4028,
      "Ġè§Ĵåº¦": 4029,
      "Ġçī¹çĤ¹": 4030,
      "ĠçĶŁåĳ½": 4031,
      "Ġå¤ļå¹´": 4032,
      "ĠæĶ¹éĿ©": 4033,
      "Ġä»»åĬ¡": 4034,
      "Ġå¾ģ": 4035,
      "Ġå½ĵå¹´": 4036,
      "èıĩ": 4037,
      "æ§": 4038,
      "åĿĢ": 4039,
      "Ġä¹±": 4040,
      "çĮ®": 4041,
      "Ġéģ¿åħį": 4042,
      "Ġaf": 4043,
      "ĠæļĹ": 4044,
      "åĿĽ": 4045,
      "Ġabout": 4046,
      "åĿı": 4047,
      "Ġdec": 4048,
      "low": 4049,
      "Ġher": 4050,
      "ĠæĮĩåĩº": 4051,
      "ays": 4052,
      "æİĪ": 4053,
      "Ġra": 4054,
      "ĠåĬłä¸Ĭ": 4055,
      "Ġåħ¬å¼Ģ": 4056,
      "ç´§": 4057,
      "Ġä¸Ģåľº": 4058,
      "Ġèµļ": 4059,
      "ĠåŁ¹è®Ń": 4060,
      "ings": 4061,
      "ĠæĭįæĳĦ": 4062,
      "ĠåıįæŃ£": 4063,
      "Ġå¿½": 4064,
      "ople": 4065,
      "ç»ª": 4066,
      "æıĲ": 4067,
      "Ġå¿«éĢŁ": 4068,
      "Ġæĸ¯": 4069,
      "åĲ«": 4070,
      "ĠåĪ°åºķ": 4071,
      "Ġè®¨è®º": 4072,
      "æĻ¨": 4073,
      "æµª": 4074,
      "Ġé¼ĵ": 4075,
      "ĠIt": 4076,
      "Ġæ¨¡åŀĭ": 4077,
      "Ġtw": 4078,
      "ĠèĢģäºº": 4079,
      "ĠéĻª": 4080,
      "ĠæĬ¥åĳĬ": 4081,
      "èĻ¾": 4082,
      "Ġç»ĵå©ļ": 4083,
      "Ġä¸Ģåı¥": 4084,
      "åŃķ": 4085,
      "Ġç«ŁçĦ¶": 4086,
      "Ġshould": 4087,
      "ĠçĽĽ": 4088,
      "Ġè¡¨è¾¾": 4089,
      "Ġä¾ĭå¦Ĥ": 4090,
      "Ġå®īæİĴ": 4091,
      "Ġæĭħå¿ĥ": 4092,
      "ĠèĪŀ": 4093,
      "Ġç§»åĬ¨": 4094,
      "éº»": 4095,
      "Ġç²Ĺ": 4096,
      "Ġæ¯ıå¹´": 4097,
      "é²ģ": 4098,
      "Ġåĺ´": 4099,
      "çĽĳ": 4100,
      "å¡ŀ": 4101,
      "æļĸ": 4102,
      "Ġç¦»å¼Ģ": 4103,
      "Ġåĳĺå·¥": 4104,
      "æĻĵ": 4105,
      "çİī": 4106,
      "è§Ī": 4107,
      "Ġæ¢ħ": 4108,
      "ative": 4109,
      "Ġä¸įä¸Ģæł·": 4110,
      "Ġå¾ħ": 4111,
      "Ġåī©": 4112,
      "Ġè¿ŀç»Ń": 4113,
      "Ġno": 4114,
      "ĠéĹ¨åı£": 4115,
      "gan": 4116,
      "ven": 4117,
      "Ġå¤ĩ": 4118,
      "Ġåħ¼": 4119,
      "ĠåĪļåĪļ": 4120,
      "Ġtime": 4121,
      "Ġé¹": 4122,
      "Ġé½Ĳ": 4123,
      "æ£Ģ": 4124,
      "Ġçº³": 4125,
      "çĦ": 4126,
      "Ġä¸ĸçºª": 4127,
      "ublic": 4128,
      "ĠéĴ¢": 4129,
      "Ġå¥Ĺé¤Ĳ": 4130,
      "Ġæĩ": 4131,
      "Ġåį«çĶŁ": 4132,
      "æķ£": 4133,
      "Ġæķ°éĩı": 4134,
      "Ġä½ĵç³»": 4135,
      "Ġåĵ¥": 4136,
      "Ġåħ¬å¸ĥ": 4137,
      "Ġçİ°å®ŀ": 4138,
      "Ġä½ĵèĤ²": 4139,
      "Ġå·§": 4140,
      "Ġå¹²åĩĢ": 4141,
      "Ġéĺħè¯»": 4142,
      "çĪ·": 4143,
      "Ġè§Ħæ¨¡": 4144,
      "ks": 4145,
      "ĠéĹ®çŃĶ": 4146,
      "Ġå¦Ĥä»Ĭ": 4147,
      "ĠåĲĪçĲĨ": 4148,
      "Ġæ¦": 4149,
      "ĠHe": 4150,
      "Ġâĸ": 4151,
      "Ġç¢°": 4152,
      "Ġè¿ĺèĥ½": 4153,
      "Ġè¡ĮåĬ¨": 4154,
      "éĿł": 4155,
      "Ġè¿ĺç®Ĺ": 4156,
      "Ġéļıä¾¿": 4157,
      "åį³": 4158,
      "Ġé£Łåĵģ": 4159,
      "Ġæİª": 4160,
      "ft": 4161,
      "Ġç§ĳæĬĢ": 4162,
      "å°¾": 4163,
      "ĠæĢķ": 4164,
      "ç½Ĺæĸ¯": 4165,
      "æ¦": 4166,
      "èİ±": 4167,
      "ific": 4168,
      "Ġèº«ä¸Ĭ": 4169,
      "ĠåĿı": 4170,
      "Ġå±ħæ°ĳ": 4171,
      "Ġæĳ©": 4172,
      "Ġæ°´æŀľ": 4173,
      "çŁ¥éģĵ": 4174,
      "Ġåį°åº¦": 4175,
      "ĠåıĬæĹ¶": 4176,
      "ĠèĹı": 4177,
      "ĠçīĻ": 4178,
      "è¯ĳ": 4179,
      "Ġéº¦": 4180,
      "ĠæĸŃ": 4181,
      "ĠæĿ¥æºĲ": 4182,
      "Ġä¸Ńå¤®": 4183,
      "æł¸": 4184,
      "Ġany": 4185,
      "Ġç¾İåħĥ": 4186,
      "Ġè§Ĥä¼Ĺ": 4187,
      "Ġæııè¿°": 4188,
      "ĠèĢĲ": 4189,
      "Ġä»įçĦ¶": 4190,
      "æľīéĻĲåħ¬åı¸": 4191,
      "Ġå£°éŁ³": 4192,
      "ĠâĢĺ": 4193,
      "ĠèĥĮæĻ¯": 4194,
      "èµŀ": 4195,
      "ĠåĪĨäº«": 4196,
      "Ġæİ¥è§¦": 4197,
      "ä¸ĥ": 4198,
      "Ġä¸»åĬ¨": 4199,
      "ĠæĪ´": 4200,
      "æĭħ": 4201,
      "è¡¡": 4202,
      "pos": 4203,
      "è´´": 4204,
      "Ġ]": 4205,
      "now": 4206,
      "Ġ[": 4207,
      "çĿĽ": 4208,
      "åĨł": 4209,
      "Ġåľ¨äºİ": 4210,
      "erm": 4211,
      "Ġè¿ĳæĹ¥": 4212,
      "oun": 4213,
      "ĠçĦ¦": 4214,
      "Ġçİ©å®¶": 4215,
      "æī¿": 4216,
      "Ġè·Ŀç¦»": 4217,
      "Ġåĩºåİ»": 4218,
      "Ġä¸Ģå¤§": 4219,
      "å²¸": 4220,
      "Ġè¿ĺè¡Į": 4221,
      "åį°": 4222,
      "ĠèĩªåĬ¨": 4223,
      "Ġinv": 4224,
      "iew": 4225,
      "èĨľ": 4226,
      "ĠéļıåĲİ": 4227,
      "Ġè§Ĵèī²": 4228,
      "ĠèĶ¬": 4229,
      "èĤł": 4230,
      "ĠæĢĿæĥ³": 4231,
      "Ġçľĭèµ·æĿ¥": 4232,
      "ĠæĴŃ": 4233,
      "Ġå¸Ĥæ°ĳ": 4234,
      "old": 4235,
      "Ĥäº®": 4236,
      "è·Ŀ": 4237,
      "Ġthan": 4238,
      "å¢ŀ": 4239,
      "Ġå¾Ģå¾Ģ": 4240,
      "Ġè§ĦåĪĴ": 4241,
      "Ġbet": 4242,
      "æ¶Ī": 4243,
      "ĠéĤ£æł·": 4244,
      "ĠæĮĩå¯¼": 4245,
      "Ġä¸Ģæ¬¾": 4246,
      "ĠÐ½": 4247,
      "Ġæ©": 4248,
      "è®²": 4249,
      "ĠåĬĽéĩı": 4250,
      "Ġæ¯įäº²": 4251,
      "å®¾": 4252,
      "hed": 4253,
      "æ³½": 4254,
      "ĠèĨ": 4255,
      "Ġä¸įæķ¢": 4256,
      "Ġinto": 4257,
      "Ġä¸Ģä»¶": 4258,
      "Ġåģļå¥½": 4259,
      "Ġå°±ç®Ĺ": 4260,
      "ĠæĢª": 4261,
      "Ġprog": 4262,
      "Ġæħ¢æħ¢": 4263,
      "Ġè¶³çĲĥ": 4264,
      "ĠåĻ": 4265,
      "Ġæ¤į": 4266,
      "Ġsuch": 4267,
      "ĠæľĪä»½": 4268,
      "è¶ħ": 4269,
      "Ġè¿İ": 4270,
      "Ġä¼ļè®®": 4271,
      "Ġæīĵå¼Ģ": 4272,
      "ĠåıĮæĸ¹": 4273,
      "ĠæıĴ": 4274,
      "Ġåı²": 4275,
      "Ġä¸Ģè¾¹": 4276,
      "ĠçĶ²": 4277,
      "ĠåįĹäº¬": 4278,
      "ĠçĶ·åŃĲ": 4279,
      "Ġç§Ł": 4280,
      "è¢ĭ": 4281,
      "Ġåħ¬éĩĮ": 4282,
      "çģ¯": 4283,
      "Ġåıĳè¡Į": 4284,
      "Ġè¿ħ": 4285,
      "ĠåľĪ": 4286,
      "Ġæī§è¡Į": 4287,
      "Ġèĳ£": 4288,
      "çĥŁ": 4289,
      "ĠèĢĮè¨Ģ": 4290,
      "Ġæ¦Ĥå¿µ": 4291,
      "æ´Ľ": 4292,
      "ĠèĬĿ": 4293,
      "ĠAs": 4294,
      "ĠçľŁå®ŀ": 4295,
      "ĠåĮ»çĸĹ": 4296,
      "Ġç´«": 4297,
      "Ġè·¨": 4298,
      "Ġæİªæĸ½": 4299,
      "Ġä¼ĺç§Ģ": 4300,
      "Ġadd": 4301,
      "Ġæ·ĺ": 4302,
      "ĠåĲİéĿ¢": 4303,
      "é¡µ": 4304,
      "ĠéĢıéľ²": 4305,
      "çĭ¬": 4306,
      "Ġçģ¯": 4307,
      "ound": 4308,
      "ade": 4309,
      "Ġç§°ä¸º": 4310,
      "ating": 4311,
      "ĠæĢİæł·": 4312,
      "Ġæīĭæľ¯": 4313,
      "Ġåĵģç§į": 4314,
      "Ġpeople": 4315,
      "ĠæıĲåīį": 4316,
      "æī¬": 4317,
      "ĠéĤĢ": 4318,
      "ĠéĽĨä¸Ń": 4319,
      "Ġè¦ģæĺ¯": 4320,
      "Ġæ¼«": 4321,
      "ĠæĹĹ": 4322,
      "ä½Ľ": 4323,
      "Ġèħ°": 4324,
      "Ġé«ĺåº¦": 4325,
      "ĠåĦ¿ç«¥": 4326,
      "Ġè¯¸": 4327,
      "lect": 4328,
      "Ġresp": 4329,
      "ĠæĩĤ": 4330,
      "Ġäººæ°ĳå¸ģ": 4331,
      "rough": 4332,
      "ĻĮ": 4333,
      "ĠçŃĸ": 4334,
      "Ġå¼ĢæĶ¾": 4335,
      "äººæ°ĳ": 4336,
      "ĠæĪĺçķ¥": 4337,
      "Ġéľĩ": 4338,
      "Ġç¼ĵ": 4339,
      "we": 4340,
      "åŀ": 4341,
      "ove": 4342,
      "åºĦ": 4343,
      "Ġæģ¢": 4344,
      "Ġè½¦è¾Ĩ": 4345,
      "Ġå¹¿ä¸ľ": 4346,
      "çº·": 4347,
      "åĬ³": 4348,
      "Ġè¡ĮæĶ¿": 4349,
      "çĶľ": 4350,
      "ĠåĩŃ": 4351,
      "ility": 4352,
      "ĠæĦıæĢĿ": 4353,
      "Ġä¹³": 4354,
      "Ġèĥĥ": 4355,
      "Ġsome": 4356,
      "ious": 4357,
      "ĥ»": 4358,
      "ĠçĥŁ": 4359,
      "èĢ³": 4360,
      "Ġæ²¿": 4361,
      "Ġæĭħä»»": 4362,
      "Ġæµ·é²ľ": 4363,
      "Ġå¤Ħäºİ": 4364,
      "ĠæļĤ": 4365,
      "ĠèĶ¬èıľ": 4366,
      "Ġæľīæ²¡æľī": 4367,
      "æ±ĩ": 4368,
      "Ġç§ĺ": 4369,
      "Ġå¥¹ä»¬": 4370,
      "ĠåĪ©çĽĬ": 4371,
      "éĢĶ": 4372,
      "ä»Ķ": 4373,
      "æ³ī": 4374,
      "Ġå¢Ļ": 4375,
      "ĠéĢĲæ¸Ĳ": 4376,
      "Ġä¸ĢåĿĹ": 4377,
      "ĠåĢĴæĺ¯": 4378,
      "ĠæĽ²": 4379,
      "Ġæ±ĩ": 4380,
      "ä¸ĭæĿ¥": 4381,
      "Ġsystem": 4382,
      "Ġåıĺå¾Ĺ": 4383,
      "ĠæĦıè¯Ĩ": 4384,
      "å±ĭ": 4385,
      "Ġthem": 4386,
      "Ġå°Ĭ": 4387,
      "è°±": 4388,
      "Ġyour": 4389,
      "éĢĴ": 4390,
      "les": 4391,
      "ĠåĮħè£ħ": 4392,
      "ĠåĨħéĥ¨": 4393,
      "Ġå¤«": 4394,
      "uman": 4395,
      "è¿İ": 4396,
      "Ġé¥®æĸĻ": 4397,
      "ĠæĭĨ": 4398,
      "Ġå®ĺæĸ¹": 4399,
      "Ġå¿Ļ": 4400,
      "Ġé²": 4401,
      "Ġå§Ĳ": 4402,
      "æŃ¦": 4403,
      "æ®Ĭ": 4404,
      "rit": 4405,
      "Ġç¨ĭåºı": 4406,
      "ĠçĶ¨äºİ": 4407,
      "Ġçĺ¦": 4408,
      "Ġçľĭè§ģ": 4409,
      "ĠçĽĸ": 4410,
      "ĠèŃ¦æĸ¹": 4411,
      "Ġæ¯Ķä¾ĭ": 4412,
      "Ġè¿Ļæ¬¾": 4413,
      "ĠGo": 4414,
      "Ġèĩªèº«": 4415,
      "vers": 4416,
      "ĠæĪ·": 4417,
      "é¡¶": 4418,
      "Ġèµ¢": 4419,
      "ĠåĬŀåħ¬": 4420,
      "Ġä»İèĢĮ": 4421,
      "Ġå®£å¸ĥ": 4422,
      "Ġform": 4423,
      "ning": 4424,
      "ĠæīĵéĢł": 4425,
      "ĠæĦŁåĪ°": 4426,
      "ĠåĩĢ": 4427,
      "Ġå¿ĥéĩĮ": 4428,
      "Ġè¯¯": 4429,
      "Ġåĩłæ¬¡": 4430,
      "ĠæĽ´æĸ°": 4431,
      "åĲ§": 4432,
      "Ġä¸»é¢ĺ": 4433,
      "Ġå®ĭ": 4434,
      "ĠæĶ¶åĪ°": 4435,
      "Ġä¸ĵéĹ¨": 4436,
      "Ġç»ĦæĪĲ": 4437,
      "ä¸¹": 4438,
      "ĠæĭĴ": 4439,
      "åİļ": 4440,
      "rib": 4441,
      "èĪį": 4442,
      "ĠæľīæĹ¶åĢĻ": 4443,
      "¾çĹħ": 4444,
      "ob": 4445,
      "åł¡": 4446,
      "Ġwhen": 4447,
      "æ¾": 4448,
      "Ġæģ¢å¤į": 4449,
      "Ġåı¯èĥ½ä¼ļ": 4450,
      "Ġç¹ģ": 4451,
      "éŁ": 4452,
      "ures": 4453,
      "Ġçħ®": 4454,
      "ĠçĥŃæĥħ": 4455,
      "èĻİ": 4456,
      "Ġå¹³æĸ¹": 4457,
      "ĠåĬ¨ä½ľ": 4458,
      "ĠæľĢä½³": 4459,
      "eneral": 4460,
      "ĠåĬ¨çī©": 4461,
      "Ġfir": 4462,
      "lement": 4463,
      "Ġåİ¨": 4464,
      "ĠAl": 4465,
      "ĠæĶ¯ä»ĺ": 4466,
      "ĠæĿ¿": 4467,
      "Ġmy": 4468,
      "åĮ»éĻ¢": 4469,
      "ĠéĢĥ": 4470,
      "Ġè´Łè´£äºº": 4471,
      "è¸": 4472,
      "æĶ»": 4473,
      "Ġshe": 4474,
      "Ġèº": 4475,
      "ĠåŁºäºİ": 4476,
      "Ġæµĭè¯ķ": 4477,
      "ä»İ": 4478,
      "Ġç«¯": 4479,
      "ĠçĽ´åĪ°": 4480,
      "con": 4481,
      "ĠÑĤ": 4482,
      "Ġä¿Ŀéļľ": 4483,
      "ĠéĽ¨": 4484,
      "ĠèĳĹåĲį": 4485,
      "åĲī": 4486,
      "Ġè¯Ĺ": 4487,
      "Ġif": 4488,
      "ĠæĬķèµĦèĢħ": 4489,
      "Ġåħ¸": 4490,
      "Ġç´¢": 4491,
      "ĠçĶ°": 4492,
      "Ġé¸Ń": 4493,
      "Ġç¾¤ä¼Ĺ": 4494,
      "Ġä¿Ħç½Ĺæĸ¯": 4495,
      "ĠéĥŃ": 4496,
      "ĠéĿĻ": 4497,
      "Ġè¨Ģ": 4498,
      "åĿ¡": 4499,
      "Ġæ±¡": 4500,
      "ç¼ĺ": 4501,
      "Ġçıį": 4502,
      "Ġåĳ¨åĽ´": 4503,
      "Ġä»¤äºº": 4504,
      "Ġè²Į": 4505,
      "æĬĬ": 4506,
      "Ġä¸Ńåįİ": 4507,
      "è¾Ī": 4508,
      "roup": 4509,
      "Ġå¹¸ç¦ı": 4510,
      "Ġå·¨å¤§": 4511,
      "æĬķ": 4512,
      "ĠæĢ§èĥ½": 4513,
      "ĠæĪĲåĳĺ": 4514,
      "Ġè®°å½ķ": 4515,
      "ĠæĦŁæĥħ": 4516,
      "æ½®": 4517,
      "ĠæĶ¹åĸĦ": 4518,
      "Ġrequ": 4519,
      "Ġä¸ŃéĹ´": 4520,
      "Ġæīįæĺ¯": 4521,
      "æĲ": 4522,
      "ĠçªĹ": 4523,
      "Ġneed": 4524,
      "å¼±": 4525,
      "Ġä¸Ĭæ¶¨": 4526,
      "Ġfin": 4527,
      "Ġpr": 4528,
      "ĠåĪĽéĢł": 4529,
      "ĠåįĪ": 4530,
      "Ġè®¤çľŁ": 4531,
      "Ġæ®ĭ": 4532,
      "Ġä¸¤å¹´": 4533,
      "Ġå¿į": 4534,
      "éĤ£": 4535,
      "Ġå®¶äºº": 4536,
      "ä¹Ŀ": 4537,
      "Ġçķ¥": 4538,
      "Ġdes": 4539,
      "ne": 4540,
      "Ġéĺ»": 4541,
      "Ġå®ģ": 4542,
      "çĪ½": 4543,
      "éĶĭ": 4544,
      "und": 4545,
      "ĠæĪĲéķ¿": 4546,
      "Ġdevelopment": 4547,
      "Ġwhe": 4548,
      "Ġä¸ĬåįĪ": 4549,
      "Ġbec": 4550,
      "ĠèĲ¥åħ»": 4551,
      "Ġç¬¦åĲĪ": 4552,
      "Ġç¾ĬèĤī": 4553,
      "èĪŀ": 4554,
      "Ġå¤§å¤ļæķ°": 4555,
      "Ġéĩĩåıĸ": 4556,
      "ĠåĨłåĨĽ": 4557,
      "ç²Ĵ": 4558,
      "ĠçĪ¸çĪ¸": 4559,
      "Ġob": 4560,
      "Ġæĥ³è±¡": 4561,
      "Ġéľ²": 4562,
      "Ġè±ª": 4563,
      "ĠåĽŀåĪ°": 4564,
      "ĠéŃĶ": 4565,
      "ĠèĽĭç³ķ": 4566,
      "Ġåı¯æĥľ": 4567,
      "Ġbas": 4568,
      "Ġsupport": 4569,
      "Ġè´¹çĶ¨": 4570,
      "Ġæĭ¿åĪ°": 4571,
      "ted": 4572,
      "¬¼": 4573,
      "Ġèī¯å¥½": 4574,
      "Ġserv": 4575,
      "å£ģ": 4576,
      "Ġå°ıè¯´": 4577,
      "çıł": 4578,
      "Ġè¡¥åħħ": 4579,
      "Ġè¿ĺå¥½": 4580,
      "èµı": 4581,
      "Ġåħ¬åħ±": 4582,
      "ĠComm": 4583,
      "é»ĺ": 4584,
      "ries": 4585,
      "Ġèª": 4586,
      "ĠæĪı": 4587,
      "¨è¯¢": 4588,
      "Ġå½ĵå¤©": 4589,
      "æ¡Į": 4590,
      "Ġæķ°åŃĹ": 4591,
      "Ġå¨±ä¹Ĳ": 4592,
      "ied": 4593,
      "Ġä¸įåĨį": 4594,
      "ĠæĬķåħ¥": 4595,
      "ink": 4596,
      "Ġcent": 4597,
      "Ġä¿ĥè¿Ľ": 4598,
      "Ġä¹¡": 4599,
      "ĠæŃ£å¥½": 4600,
      "Ġä¸Ŀ": 4601,
      "Ġlike": 4602,
      "ĠåĩºçĶŁ": 4603,
      "ĠåĲ¹": 4604,
      "ĠæľŁå¾ħ": 4605,
      "ä¸¸": 4606,
      "è°·": 4607,
      "ĠåĵªéĩĮ": 4608,
      "Ġå±ı": 4609,
      "ough": 4610,
      "Ġéļ¾ä»¥": 4611,
      "ĠåħħåĪĨ": 4612,
      "æĸ¤": 4613,
      "Ġåı¶": 4614,
      "Ġéķľ": 4615,
      "Ġinternational": 4616,
      "ĠæŃ£ç¡®": 4617,
      "Ġx": 4618,
      "ĠæľīæīĢ": 4619,
      "æ¼«": 4620,
      "Ġconc": 4621,
      "Ġæ²¡æĥ³": 4622,
      "ĠæĶ¶èĹı": 4623,
      "éĥģ": 4624,
      "Ġä¸Ģåıª": 4625,
      "åĲĽ": 4626,
      "Ġproc": 4627,
      "Ġéĩĩè®¿": 4628,
      "Ġä¸įè¡Į": 4629,
      "Ġé¦ĸæ¬¡": 4630,
      "ç®¡çĲĨ": 4631,
      "Ġå®Įç¾İ": 4632,
      "Ġèħ»": 4633,
      "ĠåĵªäºĽ": 4634,
      "Ġéªĳ": 4635,
      "è·Į": 4636,
      "Ġtwo": 4637,
      "Ġå¤§ä¼Ĺ": 4638,
      "ĠæľīçĿĢ": 4639,
      "Ġè²Įä¼¼": 4640,
      "Ġatt": 4641,
      "Ġåį·": 4642,
      "ĠéĤ®": 4643,
      "ĠæĢ§ä»·": 4644,
      "ĠéĩįåºĨ": 4645,
      "Ġï½": 4646,
      "å®ĥ": 4647,
      "ĠçĪ½": 4648,
      "Ġæĥħç»ª": 4649,
      "Ġ$": 4650,
      "ĠèĪ¹": 4651,
      "Ġè¿ĺæ²¡æľī": 4652,
      "Ġä¸Ģéĥ¨åĪĨ": 4653,
      "Ġè§Ĥå¯Ł": 4654,
      "æĭŁ": 4655,
      "resent": 4656,
      "Ġçī¹æ®Ĭ": 4657,
      "åĳ¼": 4658,
      "èĪ¹": 4659,
      "æķı": 4660,
      "Ġå°Ħ": 4661,
      "ĠWe": 4662,
      "Ġçºł": 4663,
      "æ¢ħ": 4664,
      "Ġåģļåĩº": 4665,
      "Ġå¥½çľĭ": 4666,
      "Ġç»Łä¸Ģ": 4667,
      "Ġä¸¤ç§į": 4668,
      "Ġpo": 4669,
      "Ġè®®": 4670,
      "å½Ĵ": 4671,
      "ĠåĲ¬è¯´": 4672,
      "ular": 4673,
      "åľ°åĮº": 4674,
      "amp": 4675,
      "ĠæıĲéĨĴ": 4676,
      "ĠåĸĦ": 4677,
      "ĠåĵŃ": 4678,
      "åħ¬éĩĮ": 4679,
      "ĠZ": 4680,
      "Ġç»Łè®¡": 4681,
      "ĠæĢ§ä»·æ¯Ķ": 4682,
      "ĠåĽ°éļ¾": 4683,
      "ĠèµĦäº§": 4684,
      "Ġmin": 4685,
      "æ¢¦": 4686,
      "Ġå¤įæĿĤ": 4687,
      "Ġå¹´é¾Ħ": 4688,
      "Ġå¡ĳ": 4689,
      "ise": 4690,
      "Ġè¿Ļä¸Ģ": 4691,
      "Ġçģ«éĶħ": 4692,
      "Ġå¤©æ°Ķ": 4693,
      "Ġpers": 4694,
      "Ġè§ĤçĤ¹": 4695,
      "Ġå¹¼": 4696,
      "ĠæľĢæĸ°": 4697,
      "Ġèī¾": 4698,
      "ĠåĲĪéĢĤ": 4699,
      "Ġå¤§åŀĭ": 4700,
      "Ġæ·»": 4701,
      "è¾ĵ": 4702,
      "ä¼Ł": 4703,
      "éľĩ": 4704,
      "ĠèĴ¸": 4705,
      "éĹ®é¢ĺ": 4706,
      "èĪĴ": 4707,
      "çĽĽ": 4708,
      "Ġè·Į": 4709,
      "ĠæľĢå¤ļ": 4710,
      "åŃ©åŃĲ": 4711,
      "Ġé¢Ħè®¡": 4712,
      "ĠçĶŁæĢģ": 4713,
      "Ġåģľè½¦": 4714,
      "ĠæľºåĻ¨": 4715,
      "ĠçĤ¹è¯Ħ": 4716,
      "ĠçĹĩ": 4717,
      "Ġæĺ¾å¾Ĺ": 4718,
      "ĠçļĦç¡®": 4719,
      "çĵ¦": 4720,
      "ĠåĬŀæ³ķ": 4721,
      "ĠæĿ¯": 4722,
      "Ġæĥ³åĪ°": 4723,
      "me": 4724,
      "Ġè¶ĭåĬ¿": 4725,
      "Ġåģ·": 4726,
      "Ġspec": 4727,
      "åĳĺä¼ļ": 4728,
      "Ġæ¨ª": 4729,
      "Ġè¿ħéĢŁ": 4730,
      "ĠæĺİæĺŁ": 4731,
      "Ġæ°¸è¿ľ": 4732,
      "ä¸²": 4733,
      "Ġtrans": 4734,
      "Ġåĸ·": 4735,
      "Ġæĥ³æ³ķ": 4736,
      "Ġèº«è¾¹": 4737,
      "¡èĲ": 4738,
      "ĠéĢłåŀĭ": 4739,
      "Ġå®¢äºº": 4740,
      "Ġæ¼Ķåĳĺ": 4741,
      "Ġçĸ¼": 4742,
      "ĳå¨ĺ": 4743,
      "åģ¿": 4744,
      "ĠåĮºåĪ«": 4745,
      "itte": 4746,
      "Ġä½ĵçİ°": 4747,
      "ĠåĢ¾": 4748,
      "Ġå¦»": 4749,
      "Ġafter": 4750,
      "Ġå½¢è±¡": 4751,
      "Ġç©ºæ°Ķ": 4752,
      "ĠæŃ»äº¡": 4753,
      "ret": 4754,
      "ĠæĪ¿éĹ´": 4755,
      "¡èĲĦ": 4756,
      "Ġåı¦ä¸Ģ": 4757,
      "Ġä¸¤ä¸ªäºº": 4758,
      "ĠçĽĲ": 4759,
      "Ġknow": 4760,
      "ally": 4761,
      "éļĨ": 4762,
      "æĽ¼": 4763,
      "Ġæ°ĳæĹı": 4764,
      "Ġä¸ĭæ¬¡": 4765,
      "Ġè¿½æ±Ĥ": 4766,
      "ov": 4767,
      "Ġå¤´åıĳ": 4768,
      "è¡¥": 4769,
      "Ġå·¥ä¸ļ": 4770,
      "ĠæĳĦå½±": 4771,
      "ices": 4772,
      "rent": 4773,
      "è´·": 4774,
      "Ġå¡«": 4775,
      "çĤ¼": 4776,
      "olog": 4777,
      "Ġèĥ¸": 4778,
      "ĠæĦıå¤§åĪ©": 4779,
      "Ġäººæīį": 4780,
      "ĠäºĮåįģ": 4781,
      "çº¹": 4782,
      "å¿Ļ": 4783,
      "ĠèĴĻ": 4784,
      "Ġä¾µ": 4785,
      "Ġä»İæĿ¥": 4786,
      "Ġé¢Ŀ": 4787,
      "ĠçĶĺ": 4788,
      "èį£": 4789,
      "Ġè´¦": 4790,
      "ĠåĢį": 4791,
      "ĠåĪĢ": 4792,
      "Ġçľ¼çĿĽ": 4793,
      "ĠåıĳæĮ¥": 4794,
      "Ġ>": 4795,
      "ĠåĽ½å¤ĸ": 4796,
      "ĠçĶŁçī©": 4797,
      "çĶµè¯Ŀ": 4798,
      "æķĻèĤ²": 4799,
      "Ġæİ¨åĬ¨": 4800,
      "æĳ©": 4801,
      "Ġjust": 4802,
      "Ġæ²¡æĥ³åĪ°": 4803,
      "Ġåħħæ»¡": 4804,
      "Ġåĺī": 4805,
      "Ġåīª": 4806,
      "ĠåħĪçĶŁ": 4807,
      "ç§Ł": 4808,
      "ĠæİĴéĺŁ": 4809,
      "Ġæ»¡æĦı": 4810,
      "ĠéħįåĲĪ": 4811,
      "Ġä¸¾åĬŀ": 4812,
      "Ġåº·": 4813,
      "è¹": 4814,
      "çĵ¶": 4815,
      "è®¨": 4816,
      "ĠæķĻæİĪ": 4817,
      "Ġmay": 4818,
      "ĠåĪºæ¿Ģ": 4819,
      "ĠæĪĲéĥ½": 4820,
      "Ġéģĵè·¯": 4821,
      "æĿ°": 4822,
      "Ġå¤ıå¤©": 4823,
      "Ġä»¿": 4824,
      "ĠæľīæĹ¶": 4825,
      "Ġè¶³å¤Ł": 4826,
      "Ġæ²Ł": 4827,
      "Ġå¼±": 4828,
      "Ġå®ŀåĬĽ": 4829,
      "ys": 4830,
      "Ġæ°ĳèŃ¦": 4831,
      "åĬ²": 4832,
      "omen": 4833,
      "Ġä¹ĭå¤ĸ": 4834,
      "Ġå¯¿": 4835,
      "Ġåįĩçº§": 4836,
      "ces": 4837,
      "Ġä½¿å¾Ĺ": 4838,
      "èķ": 4839,
      "ĠæĪ¿åŃĲ": 4840,
      "rop": 4841,
      "Ġè¿Ĳè¡Į": 4842,
      "Ġåı¬": 4843,
      "ĠçĮ«": 4844,
      "æĻ¶": 4845,
      "Ġinform": 4846,
      "row": 4847,
      "ĠæĹ©ä¸Ĭ": 4848,
      "åĿ¦": 4849,
      "Ġå¿ħè¦ģ": 4850,
      "Ġç±»åŀĭ": 4851,
      "Ġãĥ»": 4852,
      "Ġæ¶īåıĬ": 4853,
      "Ġäºĭä¸ļ": 4854,
      "Ġç®ĢçĽ´": 4855,
      "Ġç»ĨèĬĤ": 4856,
      "ĠçĬ¯ç½ª": 4857,
      "åĪĢ": 4858,
      "Ġæ»´": 4859,
      "æ¤į": 4860,
      "Ġé£ŀæľº": 4861,
      "ç½²": 4862,
      "èı²": 4863,
      "io": 4864,
      "Ġçī¹å¾ģ": 4865,
      "Ġè¯¦ç»Ĩ": 4866,
      "ĠçĪ±æĥħ": 4867,
      "å¸Į": 4868,
      "Ġéŀĭ": 4869,
      "Ġé©¾é©¶": 4870,
      "çĮ«": 4871,
      "çĥ¦": 4872,
      "uring": 4873,
      "åĨľ": 4874,
      "å¼Ģå§ĭ": 4875,
      "çĴĥ": 4876,
      "Ġå®ŀéĻħä¸Ĭ": 4877,
      "ĠèĩªæĪĳ": 4878,
      "åľ°äº§": 4879,
      "Ġinst": 4880,
      "Ġæĭĸ": 4881,
      "Ġä¸ľåĮĹ": 4882,
      "ä»ĭ": 4883,
      "Ġåħ¶å®ĥ": 4884,
      "éĵ¾": 4885,
      "Ġä¼ĳæģ¯": 4886,
      "ĠèµĦæľ¬": 4887,
      "ĠPro": 4888,
      "ĠåģļåĪ°": 4889,
      "ĠçīĪæľ¬": 4890,
      "è®¢": 4891,
      "Ġä¿ĿéĻ©": 4892,
      "éŀĭ": 4893,
      "Ġå±ķç¤º": 4894,
      "ĠåľŁåľ°": 4895,
      "Ġåıĭ": 4896,
      "ission": 4897,
      "Ġå¾Īé«ĺ": 4898,
      "Ġå·¥åħ·": 4899,
      "Ġè®¾ç½®": 4900,
      "ĠåĨľæĿĳ": 4901,
      "ä¿Ĺ": 4902,
      "ĠèĢĮå·²": 4903,
      "ĠæĿŃ": 4904,
      "ä¹ı": 4905,
      "Ġæį®è¯´": 4906,
      "Ġè¯¾ç¨ĭ": 4907,
      "Ġæ½®": 4908,
      "Ġé»Ħéĩĳ": 4909,
      "é¸Ń": 4910,
      "Ġå¤§å°ı": 4911,
      "Ġå¿ĥæĥħ": 4912,
      "ļåŃĲ": 4913,
      "Ġè¯´è¯Ŀ": 4914,
      "ĠæĶ¾å¼ĥ": 4915,
      "Ġæīĺ": 4916,
      "ĠæĸĩåŃĹ": 4917,
      "ract": 4918,
      "ty": 4919,
      "èĴĤ": 4920,
      "ĠæŃ¤åīį": 4921,
      "ĠÑģ": 4922,
      "Ġçĸ¾çĹħ": 4923,
      "ĠæľºåĪ¶": 4924,
      "ĠèĩªåĬ©": 4925,
      "Ġpartic": 4926,
      "ĠæĲ¬": 4927,
      "ĠæĪĸè®¸": 4928,
      "Ġbu": 4929,
      "éĹŃ": 4930,
      "Ġè¶ħå¸Ĥ": 4931,
      "èľľ": 4932,
      "å¥ı": 4933,
      "ittee": 4934,
      "çĶŁæ´»": 4935,
      "ĠåıĤèĢĥ": 4936,
      "Ġä»·éĴ±": 4937,
      "Ġå·¥èµĦ": 4938,
      "Ġå®Ĺ": 4939,
      "Ġæİ¨è¿Ľ": 4940,
      "ĠæĽ¿": 4941,
      "æ»ĳ": 4942,
      "Ġè§¦": 4943,
      "ĠçĹĩçĬ¶": 4944,
      "Ġå®ŀæĥł": 4945,
      "Ġè´Ŀ": 4946,
      "ision": 4947,
      "Ġä¹ī": 4948,
      "Ġæ¬²": 4949,
      "å°Ŀ": 4950,
      "Ġfirst": 4951,
      "Ġè¾ħ": 4952,
      "Ġcould": 4953,
      "Ġä»¶": 4954,
      "å¸Ĥåľº": 4955,
      "æĺĮ": 4956,
      "ĠåĲĲ": 4957,
      "Ġthrough": 4958,
      "è£¤": 4959,
      "æ¢¯": 4960,
      "çĶµè§Ĩ": 4961,
      "Ġæ¸©åº¦": 4962,
      "ĠçĶ·çĶŁ": 4963,
      "łéģĵ": 4964,
      "ĠåĽĽä¸ª": 4965,
      "ĠæĻ®éģį": 4966,
      "Ġæ·±åħ¥": 4967,
      "Ġå¤¹": 4968,
      "Ġå°±å¥½": 4969,
      "Ġçĳŀ": 4970,
      "ĠåºŁ": 4971,
      "Ġ#": 4972,
      "é»ĳ": 4973,
      "æ³°": 4974,
      "Ġå¼ºè°ĥ": 4975,
      "Ġå·¥ä½ľäººåĳĺ": 4976,
      "ĠéĻĲåĪ¶": 4977,
      "Ġæ¶Ĥ": 4978,
      "ĠæĪĲçĨŁ": 4979,
      "Ġï½ŀ": 4980,
      "Ġè¡¨æ¼Ķ": 4981,
      "çŁŃ": 4982,
      "Ġçªģçł´": 4983,
      "ina": 4984,
      "Ġèĩ³ä»Ĭ": 4985,
      "Ġå¯Ĵ": 4986,
      "get": 4987,
      "éľĢè¦ģ": 4988,
      "Ġåŀĭ": 4989,
      "Ġhuman": 4990,
      "Ġå¾Īä¹ħ": 4991,
      "ĠæĬ«": 4992,
      "ĠéĽħ": 4993,
      "ĠåºĹéĩĮ": 4994,
      "Ġä¸¢": 4995,
      "ick": 4996,
      "ange": 4997,
      "ĠæĿľ": 4998,
      "Ġrem": 4999,
      "oss": 5000,
      "Ġonly": 5001,
      "å¯¸": 5002,
      "Ġç¬¬ä¸Ģä¸ª": 5003,
      "Ġè¿Ļä½į": 5004,
      "æĭį": 5005,
      "Ġè´·": 5006,
      "ĠåŁ¹åħ»": 5007,
      "ĠæĤ²": 5008,
      "ĠåĬ¨åĬĽ": 5009,
      "Ġæ£Ģæµĭ": 5010,
      "Ġåºĵ": 5011,
      "ĠåĪĨå¸ĥ": 5012,
      "ĠåĲ¬åĪ°": 5013,
      "éĢĬ": 5014,
      "ç§ĭ": 5015,
      "Ġå®Ī": 5016,
      "Ġä¼´": 5017,
      "äºĴ": 5018,
      "Ġé«ĺèĢĥ": 5019,
      "Ġå·Ŀ": 5020,
      "æı´": 5021,
      "±ä¹Ĳéĥ¨": 5022,
      "ç´¯": 5023,
      "ĠæİĴåĲį": 5024,
      "ĥåľ": 5025,
      "éĤ¦": 5026,
      "ĠÑĢ": 5027,
      "é½Ĳ": 5028,
      "çĤ¸": 5029,
      "ĠæµĻ": 5030,
      "Ġä¸īå¹´": 5031,
      "åĢĴ": 5032,
      "ç¼©": 5033,
      "Ġéĺµ": 5034,
      "Ġæķ°åŃ¦": 5035,
      "ĠéĤ£å¤©": 5036,
      "ĥåľ¾": 5037,
      "Ġèį£": 5038,
      "Ġçİ»": 5039,
      "éĹ²": 5040,
      "ĠæĮºå¥½": 5041,
      "çĭĹ": 5042,
      "è£ģ": 5043,
      "ĠæĦıåĳ³": 5044,
      "ĠæŃ£æĺ¯": 5045,
      "èļ": 5046,
      "ĠæĹ¥å¸¸": 5047,
      "Ġå¼ºçĥĪ": 5048,
      "Ġagain": 5049,
      "Ġæ£Ĵ": 5050,
      "èħ¾": 5051,
      "ganiz": 5052,
      "èĦī": 5053,
      "Ġæ¯Ĵ": 5054,
      "çĳŀ": 5055,
      "ĠæĢĿèĢĥ": 5056,
      "ĠèĲ¥éĶĢ": 5057,
      "Ġè¾Ľ": 5058,
      "Ġä¸Ģéĥ¨": 5059,
      "Ġåıįæĺł": 5060,
      "ĠåĴ¨è¯¢": 5061,
      "éĢ¼": 5062,
      "ĠAnd": 5063,
      "Ġac": 5064,
      "Ġçģ°": 5065,
      "chn": 5066,
      "Ġç»ĦåĲĪ": 5067,
      "åįľ": 5068,
      "æī°": 5069,
      "Ġä¼Ĺå¤ļ": 5070,
      "éļı": 5071,
      "conom": 5072,
      "ĠçŁ¿": 5073,
      "ä¼ģ": 5074,
      "èĪ°": 5075,
      "Ġè¿Ķ": 5076,
      "Ġè¡¨éĿ¢": 5077,
      "Ġå¥³åŃ©": 5078,
      "Ġå¯¹æŃ¤": 5079,
      "Ġå¯¹æ¯Ķ": 5080,
      "è²Į": 5081,
      "èĦı": 5082,
      "ĠæĢ»ç»ĵ": 5083,
      "Ġä¾ĽåºĶ": 5084,
      "ç§ĺ": 5085,
      "Ġãģ": 5086,
      "ĠæķĻå¸Ī": 5087,
      "ä¸Ģå¤©": 5088,
      "èĿ": 5089,
      "Ġmem": 5090,
      "Ġæµ®": 5091,
      "Ġç¾İé£Ł": 5092,
      "æĦıæĢĿ": 5093,
      "åĨ·": 5094,
      "Ġprogram": 5095,
      "Ġå±ĭ": 5096,
      "ĠCon": 5097,
      "æĨ": 5098,
      "Ġå¯¹è±¡": 5099,
      "Ġåı¥": 5100,
      "Ġå¤ļæ¬¡": 5101,
      "Ġåģļæ³ķ": 5102,
      "è´Ł": 5103,
      "ĠèµĽåŃ£": 5104,
      "çłĶç©¶": 5105,
      "æ´ŀ": 5106,
      "ĠåĪĽä½ľ": 5107,
      "Ġå¢ĥ": 5108,
      "Ġéħįç½®": 5109,
      "å±ı": 5110,
      "Ġåĳ¨æľ«": 5111,
      "ĠæıĲåĪ°": 5112,
      "fore": 5113,
      "ĠèĤ¡ç¥¨": 5114,
      "Ġåıĳè¡¨": 5115,
      "Ġé»ĳèī²": 5116,
      "åĪĨéĴŁ": 5117,
      "Ġé©¬ä¸Ĭ": 5118,
      "Ġæ²Ī": 5119,
      "è¯Ĭ": 5120,
      "ĠåĽĽå·Ŀ": 5121,
      "Ġour": 5122,
      "Ġä¸ĬçıŃ": 5123,
      "å¤ı": 5124,
      "ĠåŃ¤": 5125,
      "çĥ¤": 5126,
      "Ġè©": 5127,
      "ĠåĩºçīĪ": 5128,
      "ork": 5129,
      "ç§ĳæĬĢ": 5130,
      "ĠåĶĶ": 5131,
      "Ġmon": 5132,
      "éĩįè¦ģ": 5133,
      "ĠçķĻä¸ĭ": 5134,
      "Ġç¿»è¯ĳ": 5135,
      "Ġå°ıåŃ¦": 5136,
      "Ġéī´": 5137,
      "ç¿ħ": 5138,
      "æ¢°": 5139,
      "Ġå¼Ģå¿ĥ": 5140,
      "èħ»": 5141,
      "èį¡": 5142,
      "Ġå·¡": 5143,
      "åħ¬åĽŃ": 5144,
      "ĠæĢ»ç»Ł": 5145,
      "éº¦": 5146,
      "Ġèļ": 5147,
      "Ġå«Į": 5148,
      "æĿ¥è¯´": 5149,
      "Ġåħ¬ä¼Ĺ": 5150,
      "çļĩ": 5151,
      "Ġåİ»è¿ĩ": 5152,
      "çĪ¶": 5153,
      "Ġèį·": 5154,
      "è®©": 5155,
      "ĠæŁĲäºĽ": 5156,
      "Ġä¸ĢæĹ¦": 5157,
      "åĨ°": 5158,
      "æŀª": 5159,
      "Ġåŀĥåľ¾": 5160,
      "ism": 5161,
      "Ġincluding": 5162,
      "Ġest": 5163,
      "Ġç¼©": 5164,
      "ĠçĬ¶åĨµ": 5165,
      "Ġå¿Ĺ": 5166,
      "Ġè¿ĳæľŁ": 5167,
      "å°½": 5168,
      "ĠæĮĳæĪĺ": 5169,
      "Ġå¤ªéĺ³": 5170,
      "å¹¸": 5171,
      "ĠæĭĴç»Ŀ": 5172,
      "Ġsoc": 5173,
      "Ġåľ¨å®¶": 5174,
      "Ġé«ĺéĢŁ": 5175,
      "éĴĪ": 5176,
      "ĠéĤĢè¯·": 5177,
      "Ġç¨İ": 5178,
      "Ġæ¸¸å®¢": 5179,
      "air": 5180,
      "ĠåĪ¤æĸŃ": 5181,
      "Ġæµģè¡Į": 5182,
      "Ġä¸¥æł¼": 5183,
      "ause": 5184,
      "Ġåģ¶å°Ķ": 5185,
      "Ġå°Ĩä¼ļ": 5186,
      "ĠçŁ¥åĲį": 5187,
      "å¯º": 5188,
      "èĪĴæľį": 5189,
      "ĠæĪĸæĺ¯": 5190,
      "Ġå®ļä½į": 5191,
      "ĠçĽĳç®¡": 5192,
      "ĠæĭĽçīĮ": 5193,
      "ĠæĦŁè°¢": 5194,
      "æĬĹ": 5195,
      "èĦĤ": 5196,
      "ç¬¬": 5197,
      "Ġhigh": 5198,
      "ional": 5199,
      "ĠæĹħè¡Į": 5200,
      "ts": 5201,
      "æħ§": 5202,
      "Ġé¼»": 5203,
      "ĠæķĻåŃ¦": 5204,
      "éĹ¹": 5205,
      "Ġä¸Ĭåįĩ": 5206,
      "Ġçº½": 5207,
      "Ġäºļæ´²": 5208,
      "ĠçĲĨçĶ±": 5209,
      "Ġwhat": 5210,
      "Ġæĸĩä»¶": 5211,
      "Ġä¼ļåĳĺ": 5212,
      "Ġå¤±æľĽ": 5213,
      "ĠUnited": 5214,
      "Ġent": 5215,
      "Ġç«¥": 5216,
      "ĠåıįèĢĮ": 5217,
      "æ³Ľ": 5218,
      "led": 5219,
      "Ġä¾§": 5220,
      "ĠRe": 5221,
      "ĠéĿĴå¹´": 5222,
      "åŁºéĩĳ": 5223,
      "Ġä¸¤æ¬¡": 5224,
      "Ġå¸¸è§ģ": 5225,
      "Ġåĵģè´¨": 5226,
      "ĠèģĬå¤©": 5227,
      "ĠéĿ¢ä¸´": 5228,
      "Ġç¨įå¾®": 5229,
      "Ġæ¡£": 5230,
      "Ġæķ¢": 5231,
      "Ġèħ¿": 5232,
      "Ġçĸĳ": 5233,
      "ĠéĢ¼": 5234,
      "Ġchild": 5235,
      "eth": 5236,
      "ix": 5237,
      "Ġèĳ¡èĲĦ": 5238,
      "Ġhow": 5239,
      "Ġä¸ĢåįĬ": 5240,
      "Ġcap": 5241,
      "èĴĻ": 5242,
      "Ġè®°å¿Ĩ": 5243,
      "Ġinter": 5244,
      "ĠæĬ¥åĲį": 5245,
      "ĠèµĶ": 5246,
      "ient": 5247,
      "ĠåºĬ": 5248,
      "Ġlaw": 5249,
      "Ġfe": 5250,
      "çľł": 5251,
      "Ġåľ°éĵģ": 5252,
      "Ġè±¡": 5253,
      "Ġæ¡ĮåŃĲ": 5254,
      "Ġdisc": 5255,
      "Ġå®ĮåĸĦ": 5256,
      "ĠæĮĩæłĩ": 5257,
      "æĢĢ": 5258,
      "åħ³ç³»": 5259,
      "ĠçĻ¾åº¦": 5260,
      "Ġå¢¨": 5261,
      "è´¸": 5262,
      "Ġè¾ĥå¤§": 5263,
      "Ġèį¯çī©": 5264,
      "Ġæİ¨å¹¿": 5265,
      "Ġå¯»æī¾": 5266,
      "ĠéĶĻè¯¯": 5267,
      "ä¸įä¼ļ": 5268,
      "ĠéĤ£ä¹Īå¤ļ": 5269,
      "Ġç¢Ĺ": 5270,
      "Ġè¿Ļä¹Īå¤ļ": 5271,
      "Ġæ²ŁéĢļ": 5272,
      "ç»ıæµİ": 5273,
      "Ġåĭĩ": 5274,
      "own": 5275,
      "Ġåį³åı¯": 5276,
      "ood": 5277,
      "åłĨ": 5278,
      "Ġæ¬£": 5279,
      "Ġè®¿": 5280,
      "åħĭåĬĽ": 5281,
      "ection": 5282,
      "Ġè§ĦèĮĥ": 5283,
      "ĠåĨĴ": 5284,
      "Ġmade": 5285,
      "ĠæİĮæı¡": 5286,
      "Ġç¨Ģ": 5287,
      "Ġåı¯ä»¥è¯´": 5288,
      "Ġç¥ĸ": 5289,
      "Ġå¤©æ´¥": 5290,
      "Ġå¦»åŃĲ": 5291,
      "å¨ľ": 5292,
      "Ġå¼ķåıĳ": 5293,
      "ä¼į": 5294,
      "Ġæīĭæ®µ": 5295,
      "é¥®": 5296,
      "éĢı": 5297,
      "Ġç¬¬åĽĽ": 5298,
      "su": 5299,
      "ĠæºĲ": 5300,
      "åĲ¯": 5301,
      "Ġåı¸æľº": 5302,
      "Ġprodu": 5303,
      "Ġè¯´æ³ķ": 5304,
      "Ġcol": 5305,
      "ĠæīĢåľ¨": 5306,
      "Ġå·®å¼Ĥ": 5307,
      "Ġæī«": 5308,
      "Ġåīįå¾Ģ": 5309,
      "ĠèģĶèµĽ": 5310,
      "Ġä¸Ģä¸ªæľĪ": 5311,
      "æ¨": 5312,
      "ĠæĢ»ä¹ĭ": 5313,
      "å¦»": 5314,
      "Ġåľ¨æŃ¤": 5315,
      "ĠåĤ¨": 5316,
      "Ġæ¼Ĥäº®": 5317,
      "çĲ´": 5318,
      "sp": 5319,
      "ä»ª": 5320,
      "ĠæĢĢåŃķ": 5321,
      "Ġçĩĥ": 5322,
      "ĠçĶ¨æĿ¥": 5323,
      "Ġçĭ¬çī¹": 5324,
      "Ġåľ°ä½į": 5325,
      "ĠçĻ½èī²": 5326,
      "Ġæİ¥è¿ĳ": 5327,
      "Ġæīĵç®Ĺ": 5328,
      "è·ĥ": 5329,
      "åı«": 5330,
      "ĠæĿŃå·ŀ": 5331,
      "ĠæİĪ": 5332,
      "éħĴåºĹ": 5333,
      "Ġå¤§å¤§": 5334,
      "Ġå°¼": 5335,
      "ĠçĭĤ": 5336,
      "ween": 5337,
      "Ġå¡ŀ": 5338,
      "Ġå®īè£ħ": 5339,
      "æĭĶ": 5340,
      "æ¬²": 5341,
      "Ġé¥®é£Ł": 5342,
      "è£Ĥ": 5343,
      "ĠæľĢåĸľæ¬¢": 5344,
      "Ġå¤§çº¦": 5345,
      "Ġéĩįå¤§": 5346,
      "ç¾Ĭ": 5347,
      "ĠçĥĤ": 5348,
      "Ġè¹": 5349,
      "Ġæŀª": 5350,
      "ĠåŁĥ": 5351,
      "ĠéĢļçŁ¥": 5352,
      "Ġçº·": 5353,
      "Ġä¸Ģä¼ļ": 5354,
      "Ġwell": 5355,
      "ines": 5356,
      "å¾Ĵ": 5357,
      "Ġåį³å°Ĩ": 5358,
      "åĪ©äºļ": 5359,
      "Ġäººæ°Ķ": 5360,
      "Ġä¸Ģå¥Ĺ": 5361,
      "Ġä¸Ģåı£": 5362,
      "ounc": 5363,
      "Ġæģĭ": 5364,
      "ç¦": 5365,
      "æĭ¿": 5366,
      "Ġåįĵ": 5367,
      "Ġcountries": 5368,
      "Ġè®¾æĸ½": 5369,
      "Ġæ¹¿": 5370,
      "ĠåıĳåĬ¨": 5371,
      "ĠåĴ¬": 5372,
      "Ġçī©è´¨": 5373,
      "ĠæĬĳ": 5374,
      "Ġcar": 5375,
      "Ġæ¤įçī©": 5376,
      "ĠåīįéĿ¢": 5377,
      "Ġè´«": 5378,
      "æĬĢæľ¯": 5379,
      "æ³¥": 5380,
      "ĠåĨħå¿ĥ": 5381,
      "åĢį": 5382,
      "Ġç¼ºä¹ı": 5383,
      "ĠæĽ¼": 5384,
      "Ġå¯¼æ¼Ķ": 5385,
      "è¯ļ": 5386,
      "Ġçİ»çĴĥ": 5387,
      "als": 5388,
      "Ġåħ¬äº¤": 5389,
      "Ġè¶Ĭå¤ļ": 5390,
      "å¥³å£«": 5391,
      "æ°§": 5392,
      "å½¹": 5393,
      "ĠåĪĨä¸º": 5394,
      "Ġåĳ¼åĲ": 5395,
      "å¥Ī": 5396,
      "ble": 5397,
      "tain": 5398,
      "Ġrights": 5399,
      "Ġèĭ±æĸĩ": 5400,
      "ĠåĲĦä½į": 5401,
      "ĠæķĪçİĩ": 5402,
      "Ġstud": 5403,
      "Ġåįıè®®": 5404,
      "èªī": 5405,
      "Ġph": 5406,
      "Ġè·¯è¿ĩ": 5407,
      "Ġåĩ»": 5408,
      "Ġå¥Ķ": 5409,
      "Ġç»ıçĲĨ": 5410,
      "Ġéĩįè§Ĩ": 5411,
      "ĠçłĶåıĳ": 5412,
      "Ġåıįå¯¹": 5413,
      "æĿĨ": 5414,
      "Ġè¯±": 5415,
      "Ġä¸Ģçľĭ": 5416,
      "Ġé¢ĦæľŁ": 5417,
      "Ġå¥¶èĮ¶": 5418,
      "å°ģ": 5419,
      "èĹ": 5420,
      "Ġå®«": 5421,
      "ĠæŁĶ": 5422,
      "ĠåĲµ": 5423,
      "çĽĴ": 5424,
      "ĠåĲĪåĲĮ": 5425,
      "Ġgu": 5426,
      "Ġå±±ä¸ľ": 5427,
      "Ġå°ıåŃ©": 5428,
      "Ġæī¶": 5429,
      "Ġä¿¡åı·": 5430,
      "Ġç§Ĵ": 5431,
      "ern": 5432,
      "Ġé³": 5433,
      "Ġç»¿èī²": 5434,
      "çĻ»": 5435,
      "Ġç¾İåĳ³": 5436,
      "ĠæĮĸ": 5437,
      "Ġä¸įå¾Ĺä¸į": 5438,
      "Ġç¾İä¸½": 5439,
      "Ġç£¨": 5440,
      "Ġé¡¾å®¢": 5441,
      "ible": 5442,
      "ĠéĹª": 5443,
      "å²©": 5444,
      "Ġæ³¨åĨĮ": 5445,
      "å¹´æĿ¥": 5446,
      "Ġè½»æĿ¾": 5447,
      "è±ĨèħĲ": 5448,
      "ĠæĲľç´¢": 5449,
      "Ġå§ĵ": 5450,
      "Ġbetween": 5451,
      "ĠåĳĪçİ°": 5452,
      "ĠæĪĲäº¤": 5453,
      "Ġyears": 5454,
      "Ġä»Ķ": 5455,
      "Ġaut": 5456,
      "Ġä¸įéľĢè¦ģ": 5457,
      "çī©é¦Ĩ": 5458,
      "Ġbl": 5459,
      "Ġwomen": 5460,
      "ĠåİŁåĪĻ": 5461,
      "ĠÐ²": 5462,
      "ĠåĩĮ": 5463,
      "ict": 5464,
      "Ġç¨³": 5465,
      "Ġå·§åħĭåĬĽ": 5466,
      "è¿«": 5467,
      "ĠæĶ¶è´¹": 5468,
      "ĠæĺİçĻ½": 5469,
      "èģļ": 5470,
      "Ġsee": 5471,
      "ĠèĢĥçĶŁ": 5472,
      "Ġåľ°ä¸ĭ": 5473,
      "ĠåİŁæľ¬": 5474,
      "Ġåħ´è¶£": 5475,
      "ĠæĢ§æł¼": 5476,
      "ĠåĢº": 5477,
      "Ġåı¯çĪ±": 5478,
      "ä¼°": 5479,
      "Ġå¸ħ": 5480,
      "ĠæĶ¶çĽĬ": 5481,
      "Ġæľ¬ç§ĳ": 5482,
      "ĠçĨŁæĤī": 5483,
      "Ġå¤ĸåĽ½": 5484,
      "ĠåĪ»": 5485,
      "Ġèĩªè¡Į": 5486,
      "Ġç²¾èĩ´": 5487,
      "land": 5488,
      "Ġè§ģåĪ°": 5489,
      "Ġbr": 5490,
      "Ġå°±ä¸ļ": 5491,
      "Ġé²ģ": 5492,
      "Ġèħ¹": 5493,
      "Ġè´·æ¬¾": 5494,
      "Ġeffect": 5495,
      "ĠAn": 5496,
      "Ġä¸Ģç¢Ĺ": 5497,
      "çĪĨ": 5498,
      "è±ª": 5499,
      "Ġå¥³åŃĲ": 5500,
      "Ġåĵªä¸ª": 5501,
      "ĠçĲĨæĥ³": 5502,
      "Ġå¤±è´¥": 5503,
      "ä¸ĵ": 5504,
      "Ġå¼ºå¤§": 5505,
      "ĠMr": 5506,
      "Ġå½ĵåīį": 5507,
      "Ġhim": 5508,
      "Ġç§įç±»": 5509,
      "åĽ½éĻħ": 5510,
      "èī³": 5511,
      "éĶģ": 5512,
      "Ġæ¢ģ": 5513,
      "Ġç¡®ä¿Ŀ": 5514,
      "Ġåħ¨æĸ°": 5515,
      "Ġnational": 5516,
      "Ġä¸Ģå±Ĥ": 5517,
      "ĠåĲ¯åĬ¨": 5518,
      "å®¡": 5519,
      "å¦Ļ": 5520,
      "ĠæĮ¤": 5521,
      "ĠWh": 5522,
      "ç³»ç»Ł": 5523,
      "Ġuse": 5524,
      "Ġget": 5525,
      "ĠåĨľæ°ĳ": 5526,
      "ĠåĨľä¸ļ": 5527,
      "Ġä¸Ńæĸĩ": 5528,
      "è·µ": 5529,
      "Ġçľĭä¸Ĭ": 5530,
      "ä¼ĳ": 5531,
      "Ġè´Ńçī©": 5532,
      "Ħå¼Ł": 5533,
      "Ġä»ĬæĹ¥": 5534,
      "Ġeconom": 5535,
      "åĨ¬": 5536,
      "wn": 5537,
      "åĿĲ": 5538,
      "ĠæĬĢèĥ½": 5539,
      "Ġå®¿": 5540,
      "Ġset": 5541,
      "Ġçıł": 5542,
      "ĠæľĽ": 5543,
      "Ġä»ª": 5544,
      "èĥİ": 5545,
      "Ġå·¥èīº": 5546,
      "Ġåĵį": 5547,
      "Ġèıľåĵģ": 5548,
      "åĪ·": 5549,
      "Ġä¸Ģèĩ´": 5550,
      "çĬ¯": 5551,
      "Ġæĸĩæĺİ": 5552,
      "ĠéªĹ": 5553,
      "Ġå®³": 5554,
      "Ġimplement": 5555,
      "Ġæģ°": 5556,
      "ä¸°": 5557,
      "Ġçİ¯ä¿Ŀ": 5558,
      "Ġleg": 5559,
      "ĠæŃ£å®Ĺ": 5560,
      "ĠéĢĶ": 5561,
      "ç³Ĭ": 5562,
      "urity": 5563,
      "åįıä¼ļ": 5564,
      "è¯Ĺ": 5565,
      "çªĹ": 5566,
      "Ġä¸Ĭåİ»": 5567,
      "ĠéĹ»": 5568,
      "å®ĩ": 5569,
      "½¿": 5570,
      "Ġstr": 5571,
      "ful": 5572,
      "ĸåŃĲ": 5573,
      "åıĮ": 5574,
      "Ġdif": 5575,
      "ĠæĹ¥åīį": 5576,
      "Ġmeet": 5577,
      "Ġthese": 5578,
      "çķª": 5579,
      "Ġä¸Ģæ®µæĹ¶éĹ´": 5580,
      "ĠéªĮ": 5581,
      "ĠDe": 5582,
      "Ġä»İäºĭ": 5583,
      "ĠæĮĩæķ°": 5584,
      "èµĸ": 5585,
      "åĩłå¤©": 5586,
      "ĠåĬ³åĬ¨": 5587,
      "ives": 5588,
      "Ġpublic": 5589,
      "èĶ": 5590,
      "ĠèĲ¨": 5591,
      "Ġå¤±åİ»": 5592,
      "ĠæķĻç»ĥ": 5593,
      "Ġè¯Ŀé¢ĺ": 5594,
      "ĠæĦıåĳ³çĿĢ": 5595,
      "Ġèĺ": 5596,
      "Ġæĳĩ": 5597,
      "ĠæģĴ": 5598,
      "ç½ļ": 5599,
      "Ġåģ¥èº«": 5600,
      "ĠåĮĸå¦Ĩ": 5601,
      "Ġed": 5602,
      "Ġcontin": 5603,
      "Ġæīİ": 5604,
      "åĤ¨": 5605,
      "ĠåĪĨéĩı": 5606,
      "ĠæĲº": 5607,
      "Ġè½¦åŀĭ": 5608,
      "èĻ«": 5609,
      "Ġæĥ³åĲĥ": 5610,
      "æĭĽ": 5611,
      "æĥĳ": 5612,
      "Ġæŀ¶": 5613,
      "æĻ°": 5614,
      "Ġgroup": 5615,
      "ĠåĽºå®ļ": 5616,
      "Ġæī¿è®¤": 5617,
      "ĠçĽ¸åĲĮ": 5618,
      "Ġä¸Ģçīĩ": 5619,
      "é¢Ĺ": 5620,
      "æ¬§": 5621,
      "ĠiP": 5622,
      "åĽº": 5623,
      "ĠÐ»": 5624,
      "çĻĮ": 5625,
      "æī£": 5626,
      "æŁľ": 5627,
      "Ġå±ķå¼Ģ": 5628,
      "éĵº": 5629,
      "Ġæ¯ıä¸ªäºº": 5630,
      "Ġç§¦": 5631,
      "ç¥ĸ": 5632,
      "Ġpar": 5633,
      "ĠèĢģå©Ĩ": 5634,
      "Ġä¸»æĮģ": 5635,
      "ĠåĿĳ": 5636,
      "rol": 5637,
      "Ġå®ŀè·µ": 5638,
      "èģĺ": 5639,
      "Ġå¤º": 5640,
      "Ġå°½éĩı": 5641,
      "ç¢į": 5642,
      "Ġå¯Ħ": 5643,
      "Ġæļĸ": 5644,
      "Ġæ¸łéģĵ": 5645,
      "Ġè¿Ļè¾¹": 5646,
      "Ġå¹¶éĿŀ": 5647,
      "ĠæµĻæ±Ł": 5648,
      "ĠåĤ¬": 5649,
      "Ġdet": 5650,
      "Ġå¿µ": 5651,
      "Ġåĳ¨è¾¹": 5652,
      "ĠæľĢä½İ": 5653,
      "Ġç»´æĮģ": 5654,
      "alth": 5655,
      "Ġinformation": 5656,
      "ĠçĲĨå¿µ": 5657,
      "çĽ¾": 5658,
      "Ġå¤ļç§į": 5659,
      "Ġæľ¬æ¬¡": 5660,
      "å´": 5661,
      "hip": 5662,
      "Ġä¼łæĴŃ": 5663,
      "Ġæ¡Īä»¶": 5664,
      "Ġç¥ŀç»ı": 5665,
      "Ġåľ°çĤ¹": 5666,
      "å®ħ": 5667,
      "Ġcr": 5668,
      "åģľ": 5669,
      "Ġç¯®": 5670,
      "Ġå°ıç¼ĸ": 5671,
      "ĠåĬŀçĲĨ": 5672,
      "Ġéķĩ": 5673,
      "Ġè¦Ĩ": 5674,
      "Ġæĭľ": 5675,
      "ĠæŃ¦æ±ī": 5676,
      "ĠæĹ¢çĦ¶": 5677,
      "Ġoper": 5678,
      "Ġå¤§å¹ħ": 5679,
      "Ġç¼ĸè¾ĳ": 5680,
      "Ġstate": 5681,
      "Ġéĵº": 5682,
      "Ġé»ĺ": 5683,
      "ĠåĮħåĲ«": 5684,
      "ax": 5685,
      "åĪĳ": 5686,
      "è·ĳ": 5687,
      "çĸĨ": 5688,
      "Ġç»ĻäºĪ": 5689,
      "Ġè¿Ľåı£": 5690,
      "ĠéĴŁ": 5691,
      "Ġçħ¤": 5692,
      "æĴĳ": 5693,
      "ock": 5694,
      "Ġé¥¿": 5695,
      "ĠæĪĺæĸĹ": 5696,
      "Ġå¢ŀå¼º": 5697,
      "Ġlevel": 5698,
      "Ġnum": 5699,
      "Ġäºĭæķħ": 5700,
      "ĠæĦıå¤ĸ": 5701,
      "Ġå®ĺåĳĺ": 5702,
      "Ġtechn": 5703,
      "Ġthose": 5704,
      "xt": 5705,
      "ĠæĪ¿åľ°äº§": 5706,
      "ics": 5707,
      "Ġmost": 5708,
      "ĠåĪ¶å®ļ": 5709,
      "Ġå¹¿æ³Ľ": 5710,
      "ĠèĲ¥ä¸ļ": 5711,
      "ĠçĶ·æĢ§": 5712,
      "æ¡ĥ": 5713,
      "Ġè¯ķéªĮ": 5714,
      "Ġå¤®": 5715,
      "èĲĿ": 5716,
      "Ġåħ¶æ¬¡": 5717,
      "Ġorganiz": 5718,
      "Ġçº¢èī²": 5719,
      "ĠæľĿé²ľ": 5720,
      "ĠæĴŀ": 5721,
      "ĠæľīéĻĲ": 5722,
      "Ġåĩºåı£": 5723,
      "æ³¡": 5724,
      "Ġç²¥": 5725,
      "oth": 5726,
      "Ġçºªå¿µ": 5727,
      "Ġè´¡": 5728,
      "ĠåĲ¦åĪĻ": 5729,
      "æĹĹ": 5730,
      "Ġæ¡¥": 5731,
      "Ġå°ıåĮº": 5732,
      "Ġprot": 5733,
      "ath": 5734,
      "åĤħ": 5735,
      "ĠæĪĺäºī": 5736,
      "ä¼Ĭ": 5737,
      "ĠåľŁè±Ĩ": 5738,
      "åľĨ": 5739,
      "ĠçĽĹ": 5740,
      "Ġ=": 5741,
      "Ġå°ıåĲĥ": 5742,
      "çªģ": 5743,
      "Ġå½ĵä¸Ń": 5744,
      "Ġé©»": 5745,
      "Ġåı¦ä¸Ģä¸ª": 5746,
      "çģ¾": 5747,
      "ĠåŃķ": 5748,
      "ĠAm": 5749,
      "Ġåį±éĻ©": 5750,
      "Ġå°ıç±³": 5751,
      "ting": 5752,
      "ĠåĽŃ": 5753,
      "Ġprovid": 5754,
      "Ġä¸ĢæĿ¯": 5755,
      "Ġæ·±åĪ»": 5756,
      "Ġæ¬¢è¿İ": 5757,
      "Ġæ´ĭ": 5758,
      "é«": 5759,
      "ĠåĻ¨": 5760,
      "ä¹³": 5761,
      "Ġåħµ": 5762,
      "ç³»åĪĹ": 5763,
      "Ġref": 5764,
      "Ġä¸»ä»»": 5765,
      "äº¿": 5766,
      "ĠæīĵçĶµè¯Ŀ": 5767,
      "Ġè¯»ä¹¦": 5768,
      "Ġcommun": 5769,
      "ool": 5770,
      "Ġæķı": 5771,
      "ĠçĦ¡": 5772,
      "Ġçĸ¯": 5773,
      "ower": 5774,
      "aking": 5775,
      "Ġéĸ": 5776,
      "Ġé©±": 5777,
      "Ġé¥°": 5778,
      "Ġç¾İå¥½": 5779,
      "Ġçľĭå®Į": 5780,
      "Ġç«ĭåį³": 5781,
      "ĠèĪĴéĢĤ": 5782,
      "éĥİ": 5783,
      "åĩ¡": 5784,
      "round": 5785,
      "Ġå°ıæĹ¶åĢĻ": 5786,
      "feren": 5787,
      "ĠæįĲ": 5788,
      "Ġäººæķ°": 5789,
      "ved": 5790,
      "Ġä¸Ģå¼Ģå§ĭ": 5791,
      "Ġè¯º": 5792,
      "åŁİå¸Ĥ": 5793,
      "Ġå¼Ł": 5794,
      "urn": 5795,
      "å§ĵ": 5796,
      "Ġæľ¬æĬ¥": 5797,
      "ily": 5798,
      "Ġçī©çĲĨ": 5799,
      "Ġäº¿ç¾İåħĥ": 5800,
      "ward": 5801,
      "ĠæĪĳèĩªå·±": 5802,
      "ĠéŃħ": 5803,
      "Ġèĳ£äºĭ": 5804,
      "åĹ": 5805,
      "man": 5806,
      "éªĹ": 5807,
      "Ġå¾ĭ": 5808,
      "ĠéĹ¹": 5809,
      "Ġæį®æĤī": 5810,
      "æ±½è½¦": 5811,
      "ĠåĨ¬å¤©": 5812,
      "Ġä¼¤å®³": 5813,
      "ĠSp": 5814,
      "Ġåħ¬å®ī": 5815,
      "Ġå½»": 5816,
      "Ġå®Įæķ´": 5817,
      "Ġå°ıå°ı": 5818,
      "uss": 5819,
      "Ġä½³": 5820,
      "Ġsm": 5821,
      "ĠåŃĶ": 5822,
      "æį·": 5823,
      "Ġäººä½ĵ": 5824,
      "abl": 5825,
      "ĠåĽŀåİ»": 5826,
      "Ġåįĥä¸ĩ": 5827,
      "ĠåĬ¿": 5828,
      "ĠæĢĢçĸĳ": 5829,
      "Ġæľ¬æĸĩ": 5830,
      "Ġincre": 5831,
      "èĸĦ": 5832,
      "Ġæī£": 5833,
      "its": 5834,
      "ĠæľĢçĪ±": 5835,
      "Ġäººç¾¤": 5836,
      "ife": 5837,
      "eration": 5838,
      "Ġèī²å½©": 5839,
      "Ġå¾Īå®¹æĺĵ": 5840,
      "Ġéĺ³åħī": 5841,
      "ĠåĲĮæĦı": 5842,
      "Ġäººå·¥": 5843,
      "Ġåĩ¯": 5844,
      "åıĶ": 5845,
      "Ġæ¯Ķè¾ĥå¥½": 5846,
      "ĠYou": 5847,
      "æ±Ĺ": 5848,
      "Ġç½®": 5849,
      "ĠéĴ»": 5850,
      "Ġçĵ¶": 5851,
      "Ġä¸Ĭæ¬¡": 5852,
      "Ġé«ĺæł¡": 5853,
      "ĠéĿ¢åīį": 5854,
      "Ġä¸ŃåĽ½äºº": 5855,
      "Ġæĸ½å·¥": 5856,
      "ĠæĪĳåĸľæ¬¢": 5857,
      "å°ıæĹ¶": 5858,
      "çİĽ": 5859,
      "Ġæī©å¤§": 5860,
      "Ġå¯¹æīĭ": 5861,
      "Ġåħģ": 5862,
      "Ġçªģåĩº": 5863,
      "è¢Ń": 5864,
      "æ°¸": 5865,
      "éĺ¶": 5866,
      "Ġçħİ": 5867,
      "çº¯": 5868,
      "çĤī": 5869,
      "Ġç©Ĩ": 5870,
      "Ġä¸Ĭè¿°": 5871,
      "ĠçĮľ": 5872,
      "Ġæ´Ľ": 5873,
      "Ġå¤©å¤©": 5874,
      "Ġè´¢æĶ¿": 5875,
      "ĠåĲĥåĲĥ": 5876,
      "elf": 5877,
      "Ġmm": 5878,
      "ĠæĬĽ": 5879,
      "Ġç²ĺ": 5880,
      "ĠçŃĸçķ¥": 5881,
      "Ġç»Ĩèĥŀ": 5882,
      "æ´Ĺ": 5883,
      "Ġgovernment": 5884,
      "der": 5885,
      "Ġï¼ħ": 5886,
      "ĠèŃ¦å¯Ł": 5887,
      "Ġå¯¹éĿ¢": 5888,
      "ĠéĢĤåºĶ": 5889,
      "æ¹¿": 5890,
      "ĠéªĤ": 5891,
      "çŁ¿": 5892,
      "è´¦": 5893,
      "ince": 5894,
      "ĠæĶ¶è´Ń": 5895,
      "èĥ¶": 5896,
      "Ġbo": 5897,
      "Ġé¢Ħæµĭ": 5898,
      "Ġcall": 5899,
      "Ġä¸Ģç³»åĪĹ": 5900,
      "ĠåıĬåħ¶": 5901,
      "Ġå¤§éĻĨ": 5902,
      "æľµ": 5903,
      "Ġå°ıä¼Ļ": 5904,
      "ĠåĲ«éĩı": 5905,
      "ural": 5906,
      "Ġé«ĺçº§": 5907,
      "Ġç¬¬äºĮå¤©": 5908,
      "Ġæ¹ĸåįĹ": 5909,
      "Ġä¸įåľ¨": 5910,
      "Ġå°º": 5911,
      "åħ´è¶£": 5912,
      "Ġçīµ": 5913,
      "Ġä¹Ķ": 5914,
      "ration": 5915,
      "ä¸įä½ı": 5916,
      "Ġå¹½": 5917,
      "å»·": 5918,
      "Ġè¥¿æĸ¹": 5919,
      "ĠçĽ¸åºĶ": 5920,
      "é»İ": 5921,
      "Ġä¸Ģäºº": 5922,
      "Ġä¿©": 5923,
      "»çĤ¼": 5924,
      "Ġç¡®è®¤": 5925,
      "Ġback": 5926,
      "ĠæĶ»åĩ»": 5927,
      "ç²¥": 5928,
      "ĠåĨĽäºĭ": 5929,
      "åĩºæĿ¥": 5930,
      "Ġend": 5931,
      "OS": 5932,
      "ank": 5933,
      "æ§½": 5934,
      "Ġworld": 5935,
      "ĠæĽ¹": 5936,
      "é¡º": 5937,
      "Ġåħ°": 5938,
      "any": 5939,
      "Ġæĵ¦": 5940,
      "Ġæ¸ħæĻ°": 5941,
      "æļ´": 5942,
      "ĠåĩĨç¡®": 5943,
      "Ġä¼¦": 5944,
      "åľ£": 5945,
      "bers": 5946,
      "ĠåĲĦåľ°": 5947,
      "äºķ": 5948,
      "Ġä¸»è§Ĵ": 5949,
      "ĭç»Ī": 5950,
      "Ġç¤º": 5951,
      "Ġå§ĭç»Ī": 5952,
      "Ġprocess": 5953,
      "ĠéĻ·": 5954,
      "ĠçĪ±å¥½": 5955,
      "ĠæŃĮæĽ²": 5956,
      "Ġçº·çº·": 5957,
      "åĬŀæ³ķ": 5958,
      "ĠåĮĸåŃ¦": 5959,
      "éĥ¨éĹ¨": 5960,
      "ĠçĶ»éĿ¢": 5961,
      "Ġä»Ķç»Ĩ": 5962,
      "Ġæ¢¦æĥ³": 5963,
      "ĠçĬ¹": 5964,
      "Ġmod": 5965,
      "èĢĹ": 5966,
      "ĠæĺĨ": 5967,
      "ĠLe": 5968,
      "Ġåĩłåįģ": 5969,
      "æĹħ": 5970,
      "ŀº": 5971,
      "ĠæŃ¤æĹ¶": 5972,
      "Ġåħĥç´ł": 5973,
      "ene": 5974,
      "Ġè¿ŀæİ¥": 5975,
      "çĭĤ": 5976,
      "Ġä¸Ģé¡¹": 5977,
      "Ġä»ħä»ħ": 5978,
      "Ġç»Ļåĩº": 5979,
      "å·¾": 5980,
      "Ġæ²³åįĹ": 5981,
      "ĠæĸĹ": 5982,
      "çı": 5983,
      "tic": 5984,
      "Ġè¿ĲçĶ¨": 5985,
      "ĠæĦŁæŁĵ": 5986,
      "Ġçķª": 5987,
      "èģĬ": 5988,
      "Ġæµ·å¤ĸ": 5989,
      "Ġç´§å¼ł": 5990,
      "ĠæĶ¯æĴĳ": 5991,
      "Ġéĵľ": 5992,
      "»è¾ĳ": 5993,
      "ĠBut": 5994,
      "ĠçŃīå¾ħ": 5995,
      "èĤĿ": 5996,
      "Ġå¤ĸè§Ĥ": 5997,
      "ĠçķĮ": 5998,
      "ĠæĴĴ": 5999,
      "Ġæ¶²": 6000,
      "Ġå¹²éĥ¨": 6001,
      "è¦": 6002,
      "Ġèıľåįķ": 6003,
      "Ġå¹´è½»äºº": 6004,
      "Ġè±ĨèħĲ": 6005,
      "Ġä¸ģ": 6006,
      "Ġå¥¥è¿Ĳ": 6007,
      "Ġé¢ĩ": 6008,
      "ĠåĬ²": 6009,
      "Ġæ»ĭ": 6010,
      "Ġmake": 6011,
      "hone": 6012,
      "ĠçļĨ": 6013,
      "Ġä¸Ģåº§": 6014,
      "æ®ĸ": 6015,
      "de": 6016,
      "ĠThis": 6017,
      "ç¨¿": 6018,
      "ĠæĤ¬": 6019,
      "ĠæĽ´æľī": 6020,
      "Ġè¯Ĩ": 6021,
      "ĠæĬ¹": 6022,
      "ollow": 6023,
      "Ġç»Ń": 6024,
      "Ġä¸Ģéģĵ": 6025,
      "ination": 6026,
      "arm": 6027,
      "ĠæĽĿ": 6028,
      "ĠåĤ»": 6029,
      "ouncil": 6030,
      "Ġçľĭä¸Ĭåİ»": 6031,
      "Ġæ·ĺå®Ŀ": 6032,
      "Ġå¹³è¡¡": 6033,
      "Ġç«¹": 6034,
      "èŁ¹": 6035,
      "ĠæĭĮ": 6036,
      "Ġé¥ŃåºĹ": 6037,
      "å¹¶": 6038,
      "Ġå¹¿å¤§": 6039,
      "Ġwhere": 6040,
      "Ġå¤©çĦ¶": 6041,
      "ĠçĽ´æĴŃ": 6042,
      "Ġç²¾å½©": 6043,
      "èħĶ": 6044,
      "æĭľ": 6045,
      "æµĨ": 6046,
      "ĠéĢ»è¾ĳ": 6047,
      "Ġæĳ¸": 6048,
      "Ġå¤¸": 6049,
      "ĠUN": 6050,
      "Ġåħģè®¸": 6051,
      "Ġdep": 6052,
      "ĠåĿ¦": 6053,
      "åĸ±": 6054,
      "ĠåĪĳ": 6055,
      "ä»¥ä¸º": 6056,
      "Ġå¿«ä¹Ĳ": 6057,
      "Ġconf": 6058,
      "ĠæĿĤå¿Ĺ": 6059,
      "æ³³": 6060,
      "Ġå§ľ": 6061,
      "ĠåĽ¢è´Ń": 6062,
      "ĠèħĲ": 6063,
      "ĠéĩĬ": 6064,
      "Ġè¡Įæĥħ": 6065,
      "åĨ²": 6066,
      "ĠèŁ¹": 6067,
      "çıŃçīĻ": 6068,
      "irect": 6069,
      "Ġæ±Łèĭı": 6070,
      "Ġè¥¿çıŃçīĻ": 6071,
      "arch": 6072,
      "ters": 6073,
      "ç¿¼": 6074,
      "æĮ¯": 6075,
      "Ġå¦ĩ": 6076,
      "å¿ĺ": 6077,
      "Ġagainst": 6078,
      "åŃĶ": 6079,
      "Ġè°¢è°¢": 6080,
      "Ġç¯ĩ": 6081,
      "ç»ķ": 6082,
      "Ġåļ": 6083,
      "ĠæŃ¢": 6084,
      "Ġåħ¥åĳ³": 6085,
      "Ġå¦¹åŃĲ": 6086,
      "Ġä¸ªæĢ§": 6087,
      "ĠèĥĮåĲİ": 6088,
      "ĠçŁĽ": 6089,
      "Ġèħ¾": 6090,
      "èİī": 6091,
      "ĠAr": 6092,
      "Ġç©ºè°ĥ": 6093,
      "Ġmain": 6094,
      "ĠåįĬå¹´": 6095,
      "ç¬¦": 6096,
      "Ġæ±¡æŁĵ": 6097,
      "Ġç»´æĬ¤": 6098,
      "ĠåĽŀå¿Ĩ": 6099,
      "Ġä¼ĺåĮĸ": 6100,
      "Ġåįģåĩł": 6101,
      "ĠèĪĴæľį": 6102,
      "çŃ¾": 6103,
      "Ġè§ĦåĪĻ": 6104,
      "å¸ħ": 6105,
      "éĢĢ": 6106,
      "ote": 6107,
      "Ġæ¼Ķåĩº": 6108,
      "ĠèĤļåŃĲ": 6109,
      "å¥ĭ": 6110,
      "Ġé¼ĵåĬ±": 6111,
      "Ġinte": 6112,
      "ĠéĶĢéĩı": 6113,
      "Ġz": 6114,
      "ĠéĶ»çĤ¼": 6115,
      "çĸ«": 6116,
      "view": 6117,
      "Ġä¹ĭåīį": 6118,
      "åĺī": 6119,
      "Ġä½©": 6120,
      "Ġéĵ¾": 6121,
      "Ġä»Ļ": 6122,
      "å¹»": 6123,
      "ĠçľŁå¿ĥ": 6124,
      "ner": 6125,
      "æķ¦": 6126,
      "ĠéĹ²": 6127,
      "å«Į": 6128,
      "ĠèĬĿå£«": 6129,
      "Ġæµªè´¹": 6130,
      "Ġè·¯çº¿": 6131,
      "çĶµå½±": 6132,
      "Ġåī©ä¸ĭ": 6133,
      "Ġæ¸Ĳ": 6134,
      "Ġéº»è¾£": 6135,
      "Ġå¹´åº¦": 6136,
      "ah": 6137,
      "Ġpolic": 6138,
      "Ġä¸ĸçķĮä¸Ĭ": 6139,
      "æŁ±": 6140,
      "Ġå¸¸å¸¸": 6141,
      "Ġåįļå£«": 6142,
      "Ġæīįä¼ļ": 6143,
      "ĠçķĻåŃ¦": 6144,
      "ĠçĪ¬": 6145,
      "Ġå®ŀä¹ł": 6146,
      "Ġç½ª": 6147,
      "Ġnow": 6148,
      "ĠèĤĮèĤ¤": 6149,
      "çĤĴ": 6150,
      "Ġå±ıå¹ķ": 6151,
      "Ġèµł": 6152,
      "ving": 6153,
      "Ġéļ¾éģĵ": 6154,
      "Ġè¯Ĭ": 6155,
      "åĢº": 6156,
      "Ġactiv": 6157,
      "Ġlong": 6158,
      "Ġäºĭå®ŀä¸Ĭ": 6159,
      "Ġè¿Ŀæ³ķ": 6160,
      "ç®Ģ": 6161,
      "Ġbeing": 6162,
      "Ġèĭ±éĽĦ": 6163,
      "èĢĢ": 6164,
      "pl": 6165,
      "Ġç¤¾äº¤": 6166,
      "åĪº": 6167,
      "Ġåľ°çĲĥ": 6168,
      "Ġæĥ³æĥ³": 6169,
      "è¾ī": 6170,
      "ĠAd": 6171,
      "Ġimport": 6172,
      "Ġç¢İ": 6173,
      "ĠæľīåĪ©": 6174,
      "Ġèı²": 6175,
      "ĠæĻĴ": 6176,
      "æ¢ģ": 6177,
      "Ġå¡Ķ": 6178,
      "ĠæĶ¹éĢł": 6179,
      "èĮĦ": 6180,
      "Ġæĺ¾èĳĹ": 6181,
      "ĠèĽĭçĻ½": 6182,
      "Ġçİĩ": 6183,
      "Ġæ´ª": 6184,
      "Ġå°¾": 6185,
      "ç¨³": 6186,
      "Ġåįĵè¶Ĭ": 6187,
      "é³": 6188,
      "ĠéĿŀå¸¸å¥½": 6189,
      "ants": 6190,
      "ĠåĪ©æ¶¦": 6191,
      "hor": 6192,
      "Ġæ¼ı": 6193,
      "Ġä¾ĿæĹ§": 6194,
      "ĠæĴ¤": 6195,
      "ĠæĺŁæľŁ": 6196,
      "iel": 6197,
      "å¨ĥ": 6198,
      "day": 6199,
      "Ġåħ¸åŀĭ": 6200,
      "è¸ª": 6201,
      "Ġæ·»åĬł": 6202,
      "Ġè®¡ç®Ĺæľº": 6203,
      "Ġæµħ": 6204,
      "Ġé¸¡èĽĭ": 6205,
      "æĤ¦": 6206,
      "ĠåĬŀåħ¬å®¤": 6207,
      "ĠçĨĬ": 6208,
      "Ġä¸įæĩĤ": 6209,
      "ĠåľºæĻ¯": 6210,
      "Ġä»ĸäºº": 6211,
      "Ġå½»åºķ": 6212,
      "ĠåħĪåĲİ": 6213,
      "Ġè¯ļ": 6214,
      "ĠåĲĵ": 6215,
      "Ġç¾¤ä½ĵ": 6216,
      "æºª": 6217,
      "Ġæ¯«æĹł": 6218,
      "Ġç«ł": 6219,
      "ĠæįŁå¤±": 6220,
      "Ġå®ľ": 6221,
      "Ġext": 6222,
      "Ġäºı": 6223,
      "ĠçĽĪ": 6224,
      "Ġå½¼": 6225,
      "ĠèµĦæł¼": 6226,
      "Ġè§ģè¿ĩ": 6227,
      "æª": 6228,
      "ĠåĬ¨çĶ»": 6229,
      "ĠæĢĿç»´": 6230,
      "Ġç®Ĺæ³ķ": 6231,
      "ĠåķĨå®¶": 6232,
      "Ġé¥¼": 6233,
      "ĠåºĹéĿ¢": 6234,
      "Ġæłĩé¢ĺ": 6235,
      "Ġå¦Ĥä¸ĭ": 6236,
      "Ġmany": 6237,
      "ĠçĶŁæĹ¥": 6238,
      "ĠæĪªèĩ³": 6239,
      "ĠæĸĩåŃ¦": 6240,
      "Ġhel": 6241,
      "Ġé¬¼": 6242,
      "èĸª": 6243,
      "Ġplan": 6244,
      "ºåŃĲ": 6245,
      "ĠçĲĥè¿·": 6246,
      "Ġé¡ºåĪ©": 6247,
      "å§Ķä¼ļ": 6248,
      "ĠåĽ¾ä¹¦": 6249,
      "Ġprom": 6250,
      "èĭ¥": 6251,
      "èĭĹ": 6252,
      "Ġéĵģè·¯": 6253,
      "éĸ": 6254,
      "Ġé£ŀè¡Į": 6255,
      "olution": 6256,
      "Ġè£ģ": 6257,
      "Ġçł´åĿı": 6258,
      "ĠèĪ¬": 6259,
      "PP": 6260,
      "Ġè¯ķè¯ķ": 6261,
      "æĭĮ": 6262,
      "Ġcountry": 6263,
      "ĠçĶµè§Ĩåī§": 6264,
      "æ£Ĵ": 6265,
      "ĠèĹ": 6266,
      "Ġæľīè¶£": 6267,
      "BA": 6268,
      "ĠçĶŁéķ¿": 6269,
      "ĠéĻ¶": 6270,
      "Ġè¾ĥé«ĺ": 6271,
      "Ġsur": 6272,
      "ized": 6273,
      "Ġåľ°åĿĢ": 6274,
      "Ġç¥Ŀ": 6275,
      "ĠéĤĵ": 6276,
      "Ġä¸Ĭèıľ": 6277,
      "ĠæĿ°": 6278,
      "Ġå¿ĹæĦ¿": 6279,
      "Ġæī¿æĭħ": 6280,
      "ĠåĩıèĤ¥": 6281,
      "Ġmed": 6282,
      "ĠSec": 6283,
      "Ġå±Ĭ": 6284,
      "Ġé«ĺç«¯": 6285,
      "ĠéĤ»": 6286,
      "Ġä¹ĥ": 6287,
      "è£Ļ": 6288,
      "Ġmark": 6289,
      "èĦ±": 6290,
      "other": 6291,
      "Ġä¸Ńå°ı": 6292,
      "ĠæĩĴ": 6293,
      "ĠéĿ©": 6294,
      "Ġè£ħé¥°": 6295,
      "çŀ": 6296,
      "åĽ°": 6297,
      "Ġä¸»å¸Ń": 6298,
      "Ġdef": 6299,
      "æīİ": 6300,
      "ç¡¬": 6301,
      "ç»¿": 6302,
      "çķħ": 6303,
      "Ġçº½çº¦": 6304,
      "ral": 6305,
      "Ġè¦ĨçĽĸ": 6306,
      "Ġèĥİ": 6307,
      "Ġinvest": 6308,
      "èĩ£": 6309,
      "ĠéĺŁä¼į": 6310,
      "ĠæĽ´å¤§": 6311,
      "Ġdon": 6312,
      "é¸Ł": 6313,
      "Ġåĵİ": 6314,
      "Ġä¸Ī": 6315,
      "Ġä¿¡çĶ¨": 6316,
      "ĠèĲĮ": 6317,
      "Ġå§ĳå¨ĺ": 6318,
      "ivers": 6319,
      "Ġpri": 6320,
      "tt": 6321,
      "ĠæŀĦæĪĲ": 6322,
      "Ġåĥ": 6323,
      "ä¸ľè¥¿": 6324,
      "ĠæıŃ": 6325,
      "éģĹ": 6326,
      "çīĽèĤī": 6327,
      "Ġloc": 6328,
      "ĠSh": 6329,
      "Ġgood": 6330,
      "ĠèĤĿ": 6331,
      "ĠâĦ": 6332,
      "Ġä¸ºä½ķ": 6333,
      "ĠåĲĮæ¯Ķ": 6334,
      "è¡«": 6335,
      "ĠåĲ¸æĶ¶": 6336,
      "Ġç¬¬äºĮæ¬¡": 6337,
      "ĠåŃ¦æľ¯": 6338,
      "Ġæĥ³èµ·": 6339,
      "ĠåķĨåĬ¡": 6340,
      "Ġtake": 6341,
      "ĠéĢīæīĭ": 6342,
      "Ġcur": 6343,
      "Ġdid": 6344,
      "ĠåĪĿä¸Ń": 6345,
      "Ġç»ĥä¹ł": 6346,
      "Ġve": 6347,
      "Ġä¼ĳéĹ²": 6348,
      "Ġéģĵå¾·": 6349,
      "Ġåľ¨çº¿": 6350,
      "ĠèĤº": 6351,
      "Ġè´¡çĮ®": 6352,
      "Ġå¿«éĢĴ": 6353,
      "Ġéĺ²æŃ¢": 6354,
      "Ġå¾ĭå¸Ī": 6355,
      "Ġexper": 6356,
      "ck": 6357,
      "å°¼äºļ": 6358,
      "å°¿": 6359,
      "ĠäºĳåįĹ": 6360,
      "Ġä¸ĭè½½": 6361,
      "ĠæŀľçĦ¶": 6362,
      "èĤª": 6363,
      "Ġæľįè£ħ": 6364,
      "ĠåºĨ": 6365,
      "Ġä¸ĭè·Į": 6366,
      "ĠçĽĳçĿ£": 6367,
      "Ġä¸Ģè¾Ĩ": 6368,
      "ash": 6369,
      "Ġä»İå°ı": 6370,
      "ĠçĽ¸äºĴ": 6371,
      "ĠçĿ¡è§ī": 6372,
      "å§¨": 6373,
      "ĠçŁĽçĽ¾": 6374,
      "ĠéĿĴæĺ¥": 6375,
      "Ġgeneral": 6376,
      "Ġä¸ĢæĬĬ": 6377,
      "ĠéĶģ": 6378,
      "çĮª": 6379,
      "raph": 6380,
      "ĠæĹº": 6381,
      "ĠèĤĮèĤī": 6382,
      "ĠæĿĳæ°ĳ": 6383,
      "ĠäºĨè§£åĪ°": 6384,
      "èħº": 6385,
      "Ġæĭįåįĸ": 6386,
      "å¯¿": 6387,
      "éĴ¢": 6388,
      "ĠæĪĲåĪĨ": 6389,
      "Ġæľ«": 6390,
      "åŃ¦æł¡": 6391,
      "Ġä¸¹": 6392,
      "Ġéķľå¤´": 6393,
      "ĠçĤ¹å¿ĥ": 6394,
      "å§»": 6395,
      "åĭĩ": 6396,
      "å°ĸ": 6397,
      "ĠéĤ£è¾¹": 6398,
      "åĨĴ": 6399,
      "ĠåŃ¦ä¼ļ": 6400,
      "Ġé¡µ": 6401,
      "Ġå¹´åºķ": 6402,
      "Ġæ··åĲĪ": 6403,
      "Ġçģ«è½¦": 6404,
      "Ġåıĳåĩº": 6405,
      "Ġfollow": 6406,
      "Ġæİ¥ä¸ĭæĿ¥": 6407,
      "agement": 6408,
      "ency": 6409,
      "Ġè¥¿å®ī": 6410,
      "ality": 6411,
      "ĠäºĴåĬ¨": 6412,
      "ows": 6413,
      "¬éĹ´": 6414,
      "orts": 6415,
      "Ġsign": 6416,
      "ĠæľĢæĹ©": 6417,
      "ĠåĸĬ": 6418,
      "Ġbefore": 6419,
      "Ġä»ĭ": 6420,
      "éģ¿": 6421,
      "Ġæľºåľº": 6422,
      "åĩī": 6423,
      "Ġåįģå¹´": 6424,
      "ĠçīĮåŃĲ": 6425,
      "ron": 6426,
      "æĨ¾": 6427,
      "ining": 6428,
      "Ġè®ºåĿĽ": 6429,
      "Ġå¤§åŃ¦çĶŁ": 6430,
      "Ġè¿Ļéĥ¨": 6431,
      "Ġå¿ĺè®°": 6432,
      "é½¿": 6433,
      "Ġç»ĺ": 6434,
      "ute": 6435,
      "èİ²": 6436,
      "ĠèĦĤ": 6437,
      "Ġè½½": 6438,
      "Ġä¸ŃåĮ»": 6439,
      "Ġä½ľåĩº": 6440,
      "īå®³": 6441,
      "åĪĬ": 6442,
      "é¼ł": 6443,
      "å®´": 6444,
      "Ġè°·": 6445,
      "ä¿Ĭ": 6446,
      "ĠæīĵæĬĺ": 6447,
      "Ġè½¨": 6448,
      "Ġèĥ¶": 6449,
      "åı¥è¯Ŀ": 6450,
      "Ġçİīç±³": 6451,
      "å¢Ļ": 6452,
      "Ġçĥ§çĥ¤": 6453,
      "Ġæ¥": 6454,
      "åīĳ": 6455,
      "ai": 6456,
      "yp": 6457,
      "Ġæ°ĳä¸»": 6458,
      "åĿĬ": 6459,
      "Ġä¿±ä¹Ĳéĥ¨": 6460,
      "ĠÐº": 6461,
      "Ġå®ļä¹ī": 6462,
      "cept": 6463,
      "ĠåĪ°ä½į": 6464,
      "Ġå²Ľ": 6465,
      "Ġæīĵåĩ»": 6466,
      "hes": 6467,
      "Ġèĩªä¸»": 6468,
      "Ġå®ŀçĶ¨": 6469,
      "ĠåĲįç§°": 6470,
      "Ġåį´æĺ¯": 6471,
      "è½¨": 6472,
      "Ġke": 6473,
      "æļĹ": 6474,
      "Ġæľºæ¢°": 6475,
      "Ġmeas": 6476,
      "Ġæİ¢ç´¢": 6477,
      "li": 6478,
      "Ġä»·ä½į": 6479,
      "ĠÎ": 6480,
      "Ġè´§å¸ģ": 6481,
      "èĨı": 6482,
      "ä»ĵ": 6483,
      "ç¥¥": 6484,
      "Ġä¾ĭåŃĲ": 6485,
      "ç§ģ": 6486,
      "Ġperson": 6487,
      "ĠéĶ®": 6488,
      "ĠæĹłæķ°": 6489,
      "æĤ£": 6490,
      "Ġæĸ°åįİ": 6491,
      "ĠåĬłå·¥": 6492,
      "Ġå¤ļæķ°": 6493,
      "ĠåĪĨç±»": 6494,
      "ĠèĶ¡": 6495,
      "Ġç¬Ķè®°": 6496,
      "Ġç»ĵè®º": 6497,
      "å¯Ĵ": 6498,
      "éĻµ": 6499,
      "ĠâĦĥ": 6500,
      "Ġresult": 6501,
      "çŃĭ": 6502,
      "ĠèŀįèµĦ": 6503,
      "æµ¦": 6504,
      "Ġequ": 6505,
      "Ġè¯»èĢħ": 6506,
      "Ġestabl": 6507,
      "Ġåħ¬åĬ¡": 6508,
      "Ġæĸĩçī©": 6509,
      "ĠæĹ©æľŁ": 6510,
      "ĠPS": 6511,
      "ĠæĬĢå·§": 6512,
      "Ġå°ıå¿ĥ": 6513,
      "éĺ¿": 6514,
      "leg": 6515,
      "ĠçĤ¹åĩ»": 6516,
      "Ġä¸Ģåħ±": 6517,
      "ä»Ļ": 6518,
      "Ġå±ħä½ı": 6519,
      "Ġæ³ķéĻ¢": 6520,
      "Ġlead": 6521,
      "lear": 6522,
      "Ġå°Ĭéĩį": 6523,
      "åĩı": 6524,
      "Ġå¿ĥæĢģ": 6525,
      "Ġä¸Ĭä¸ĭ": 6526,
      "Ġä¸Ģåĳ¨": 6527,
      "Ġåľ¨éĤ£": 6528,
      "ĠåĲĽ": 6529,
      "ĠæĥħæĦŁ": 6530,
      "ç¢ĳ": 6531,
      "gy": 6532,
      "ĠåĲĦç±»": 6533,
      "iet": 6534,
      "Ġåħ³å¿ĥ": 6535,
      "Ġä¸īæĺŁ": 6536,
      "ĠçĶŁæĪĲ": 6537,
      "çĶŁç´ł": 6538,
      "Ġéħ¥": 6539,
      "ale": 6540,
      "Ġæ³¥": 6541,
      "ĠéĤ£æĹ¶åĢĻ": 6542,
      "Ġä¸Ĭåĳ¨": 6543,
      "ĠæĿ¥è¿ĻéĩĮ": 6544,
      "ªçİ¯": 6545,
      "ference": 6546,
      "Ġå¥¢": 6547,
      "Ġæķ¬": 6548,
      "è¿ģ": 6549,
      "ĠåıĹä¼¤": 6550,
      "ä¹¦è®°": 6551,
      "ç¼º": 6552,
      "æģ¶": 6553,
      "ĠçĶµæ±ł": 6554,
      "ĠåħĦå¼Ł": 6555,
      "Ġè·ŁçĿĢ": 6556,
      "Ġå¥ī": 6557,
      "Ġçłģ": 6558,
      "loy": 6559,
      "Ġæ´ŀ": 6560,
      "Ġnumber": 6561,
      "ĠæĢİä¹Īæł·": 6562,
      "æĸĩåĮĸ": 6563,
      "æŀĿ": 6564,
      "ä¼ĺ": 6565,
      "Ġè¾½": 6566,
      "åĪĨä¹ĭ": 6567,
      "ĠçĪ±åĲĥ": 6568,
      "ĠâĨ": 6569,
      "Ġå·®è·Ŀ": 6570,
      "Ġæ¬ł": 6571,
      "ata": 6572,
      "Ġæł¡åĽŃ": 6573,
      "åĢŁ": 6574,
      "ĠåįĬä¸ª": 6575,
      "ĠåĪł": 6576,
      "Ġè¿ĽæŃ¥": 6577,
      "éĻ·": 6578,
      "ros": 6579,
      "ĠåĴ±": 6580,
      "çģŃ": 6581,
      "ĠæķĮ": 6582,
      "ĠæĿ¿åĿĹ": 6583,
      "¤éħĴ": 6584,
      "ĠåĽŀåºĶ": 6585,
      "ĠåĬĽåº¦": 6586,
      "Ġåħ·å¤ĩ": 6587,
      "Ġè¿ĳå¹´æĿ¥": 6588,
      "Ġop": 6589,
      "åĲĦ": 6590,
      "Ġè¾ĥä¸º": 6591,
      "ç£¨": 6592,
      "Ġç©¶": 6593,
      "mb": 6594,
      "rest": 6595,
      "Ġçİ°éĩĳ": 6596,
      "Ġåĩºåıĳ": 6597,
      "Ġè¦ģä¸į": 6598,
      "ĠèĪį": 6599,
      "åįĬå¹´": 6600,
      "Ġçģ¾": 6601,
      "Ġadv": 6602,
      "min": 6603,
      "å»ī": 6604,
      "åĸĿ": 6605,
      "éĹ·": 6606,
      "ĠèĤ¡ä¸ľ": 6607,
      "ĠèĦı": 6608,
      "ĠæĽ´ä¸º": 6609,
      "ĠéĿ¢è¯ķ": 6610,
      "Ġæłĩå¿Ĺ": 6611,
      "Ġplay": 6612,
      "ever": 6613,
      "Ġå²Ĺ": 6614,
      "ä¾£": 6615,
      "ç¬¼": 6616,
      "Ġè¯´è¯´": 6617,
      "ĠåĴĸåĸ±": 6618,
      "ĠæĹłäºº": 6619,
      "Ġè®¾ç«ĭ": 6620,
      "Ġè§Ħå¾ĭ": 6621,
      "å®¿": 6622,
      "ĠåĽ½æ°ĳ": 6623,
      "ng": 6624,
      "Ġfl": 6625,
      "Ġèĥ½éĩı": 6626,
      "ĠæĻĭ": 6627,
      "ĠæķıæĦŁ": 6628,
      "Ġä¸ĢçĤ¹çĤ¹": 6629,
      "ĠèĤ©": 6630,
      "Ġè¿ª": 6631,
      "Ġéº»çĥ¦": 6632,
      "ĠNations": 6633,
      "Ġæľ¬åľ°": 6634,
      "chool": 6635,
      "ced": 6636,
      "ĠåºĶå½ĵ": 6637,
      "Ġproject": 6638,
      "Ġä¸įå¯¹": 6639,
      "ĠéĢĨ": 6640,
      "ĠçŁŃæľŁ": 6641,
      "æ»©": 6642,
      "ruct": 6643,
      "Ġåº§ä½į": 6644,
      "Ġçİ¯èĬĤ": 6645,
      "Ġduring": 6646,
      "Ġçĥ¦": 6647,
      "Ġåı¬å¼Ģ": 6648,
      "Ġcour": 6649,
      "Ġä¸Ĭç½ĳ": 6650,
      "Ġé¢Ĺ": 6651,
      "Ġè¸ı": 6652,
      "Ġä¸Ģæĸ¹éĿ¢": 6653,
      "ĠæĿĥåĪ©": 6654,
      "Ġfam": 6655,
      "åī²": 6656,
      "äº§åĵģ": 6657,
      "Ġåĩ¤": 6658,
      "Ġä¸ļç»©": 6659,
      "ĠStates": 6660,
      "Ġçħ§é¡¾": 6661,
      "Ġå±ķçİ°": 6662,
      "ĠæĹĹä¸ĭ": 6663,
      "Ġæĸ°çĸĨ": 6664,
      "åħ¹": 6665,
      "æĢĸ": 6666,
      "Ġç©¿çĿĢ": 6667,
      "Ġæ¥¼ä¸Ĭ": 6668,
      "ĠåĲĬ": 6669,
      "ĠåĬłå¤§": 6670,
      "Ġä¸Ģç¯ĩ": 6671,
      "çŃ¹": 6672,
      "Ġçĥ«": 6673,
      "ç¢İ": 6674,
      "ĠçĶ·æľĭåıĭ": 6675,
      "Ġç§Ģ": 6676,
      "Ġå°¿": 6677,
      "ĠæĹ¥åŃĲ": 6678,
      "Ġå¼Ĥå¸¸": 6679,
      "ä¸įèµ·": 6680,
      "Ġä¸ĢèĪ¬èĪ¬": 6681,
      "illion": 6682,
      "Ġæĺ¾çĦ¶": 6683,
      "ä¸įèĥ½": 6684,
      "ĠåĩºéĹ¨": 6685,
      "ĠåĴ¯": 6686,
      "Ġåıĸæ¶Ī": 6687,
      "Ġfund": 6688,
      "Ġä¸ľæĸ¹": 6689,
      "å²Ĺ": 6690,
      "Ġappro": 6691,
      "Ġåį¢": 6692,
      "Ġthree": 6693,
      "Ġinf": 6694,
      "ĠçŃ¹": 6695,
      "åĽ½å®¶": 6696,
      "æĽ¿": 6697,
      "ä¼ģä¸ļ": 6698,
      "Ġå°ĸ": 6699,
      "Ġåĩĳ": 6700,
      "ç¼ĵ": 6701,
      "Ġæī§æ³ķ": 6702,
      "Ġåĩºç§Ł": 6703,
      "Ġæ¯ıä¸Ģä¸ª": 6704,
      "ç»ıçĲĨ": 6705,
      "up": 6706,
      "ĠçĹĽèĭ¦": 6707,
      "Ġéĩĳå±ŀ": 6708,
      "ĠåĲĥèµ·æĿ¥": 6709,
      "eric": 6710,
      "Ġåį§": 6711,
      "Ġbecause": 6712,
      "Ġown": 6713,
      "Ġé«ĺè¾¾": 6714,
      "èĥĮ": 6715,
      "ĠçĹħäºº": 6716,
      "Ġæ¼ĶåĶ±": 6717,
      "Ġéļ¾åº¦": 6718,
      "Ġæİ¥åĪ°": 6719,
      "ĠæĨ": 6720,
      "ç®Ń": 6721,
      "ull": 6722,
      "ĠçłĶç©¶çĶŁ": 6723,
      "ĠåŁĭ": 6724,
      "ĠçīĽæİĴ": 6725,
      "Ġfinanc": 6726,
      "vention": 6727,
      "åªĴ": 6728,
      "ĠåĬĿ": 6729,
      "Ġä¸Īå¤«": 6730,
      "Ġåį³ä¾¿": 6731,
      "Ġé¸Ł": 6732,
      "Ġä¼ļä¸įä¼ļ": 6733,
      "Ġdra": 6734,
      "ĠæĮĩæĮ¥": 6735,
      "Ġèĥĸ": 6736,
      "ĠèĿ": 6737,
      "Ġå®¶åħ·": 6738,
      "Ġä¸īåįģ": 6739,
      "ĠéĨĴ": 6740,
      "æ¶¯": 6741,
      "Ġevery": 6742,
      "Ġdem": 6743,
      "Ġå¤§çĽĺ": 6744,
      "Ġæ¬º": 6745,
      "ĠæľĢåĪĿ": 6746,
      "Ġå®ĩ": 6747,
      "Ġè¯·éĹ®": 6748,
      "ĠèĤł": 6749,
      "Ġä¼¸": 6750,
      "ĠèĲ½å®ŀ": 6751,
      "Ġå·²æľī": 6752,
      "Ġäºļé©¬": 6753,
      "Ġsecurity": 6754,
      "Ġç¦": 6755,
      "ĠçĶŁåŃĺ": 6756,
      "Ġvery": 6757,
      "Ġä½ľä¸ļ": 6758,
      "ĠåķĨåľº": 6759,
      "Ġéģį": 6760,
      "è¿Ļæł·": 6761,
      "Ġhealth": 6762,
      "Ġç©·": 6763,
      "ĠæĹĭ": 6764,
      "Ġæģ©": 6765,
      "æīĢä»¥": 6766,
      "Ġlast": 6767,
      "ium": 6768,
      "èİĵ": 6769,
      "Ġser": 6770,
      "ĠéĽķ": 6771,
      "ĠåıĳåĬ¨æľº": 6772,
      "æ¦ľ": 6773,
      "Ġä¾Ŀæį®": 6774,
      "Ġå®ŀè¡Į": 6775,
      "ä¼ı": 6776,
      "Ġä¼ĺè´¨": 6777,
      "æĤĶ": 6778,
      "Ġå¸ĥå±Ģ": 6779,
      "èĵĿ": 6780,
      "Ġç½ļ": 6781,
      "iness": 6782,
      "ĠéĢĤå½ĵ": 6783,
      "ĠæµģåĬ¨": 6784,
      "Ġæ¬£èµı": 6785,
      "ital": 6786,
      "Ġå¿ħçĦ¶": 6787,
      "æĥĬ": 6788,
      "ilit": 6789,
      "çĺ¤": 6790,
      "æ¸¸æĪı": 6791,
      "ĠçĶµåĬ¨": 6792,
      "Ġéļ¾åĲĥ": 6793,
      "ĠÐ´": 6794,
      "æ¤ħ": 6795,
      "ĠæĪĲå°±": 6796,
      "Ġæĭ¿çĿĢ": 6797,
      "Ġè¿ģ": 6798,
      "Ġæ¦ľ": 6799,
      "ĠèĬĴ": 6800,
      "Ġåĩłå¤©": 6801,
      "Ġè¯ī": 6802,
      "Ġæķ´çĲĨ": 6803,
      "æŃī": 6804,
      "Ġå½ĵåĪĿ": 6805,
      "ç¯®": 6806,
      "Ġçĸ²": 6807,
      "ĠéĤĦ": 6808,
      "Ġçº§åĪ«": 6809,
      "Ġå®¤åĨħ": 6810,
      "Ġè¿ĻçĤ¹": 6811,
      "Ġä¿®æĶ¹": 6812,
      "ĠåĲ«æľī": 6813,
      "Ġå¿ĥä¸Ń": 6814,
      "Ġéĥ¨éĺŁ": 6815,
      "Ġè½¦ç«Ļ": 6816,
      "å·ŀå¸Ĥ": 6817,
      "Ġå¹³æĸ¹åħ¬éĩĮ": 6818,
      "Ġå¹¿åľº": 6819,
      "Ġè´¨çĸĳ": 6820,
      "Ġbus": 6821,
      "åĭ¤": 6822,
      "ĠåĨħåľ°": 6823,
      "Ġå®¿èĪį": 6824,
      "Ġç¼ĺ": 6825,
      "Ġåĵ²": 6826,
      "æĸ¯çī¹": 6827,
      "ĠçĽĨ": 6828,
      "æ»´": 6829,
      "Ġoffic": 6830,
      "Ġä¸Ģç¾¤": 6831,
      "ĠæģĲæĢĸ": 6832,
      "Ġåĩ¡": 6833,
      "èĥģ": 6834,
      "Ġå§Ĳå§Ĳ": 6835,
      "Ġused": 6836,
      "Ġchildren": 6837,
      "Ġå©ļå§»": 6838,
      "ĠæļĤæĹ¶": 6839,
      "ug": 6840,
      "Ġç¢³": 6841,
      "æ³ķéĻ¢": 6842,
      "Ġéĺ¿éĩĮ": 6843,
      "Ġä¹ĭæīĢä»¥": 6844,
      "Ġæ¡Ĥ": 6845,
      "ĠçĲĨè´¢": 6846,
      "Ġæĸ¤": 6847,
      "Ġæ¡ĥ": 6848,
      "ĠåĪ°è¾¾": 6849,
      "az": 6850,
      "ç©¿": 6851,
      "Ġé¦ħ": 6852,
      "Ġæ°Ķè´¨": 6853,
      "æķ¬": 6854,
      "Ġå¥³æľĭåıĭ": 6855,
      "ĠåıĤæķ°": 6856,
      "å·¥ç¨ĭ": 6857,
      "Ġæµģéĩı": 6858,
      "oy": 6859,
      "ĠéĺŁåĳĺ": 6860,
      "aff": 6861,
      "Ġä¸ĩäºº": 6862,
      "Ġå¯¿åı¸": 6863,
      "Ġæī¬": 6864,
      "Ġä¸Ģçº¿": 6865,
      "èħĬ": 6866,
      "ĠåįĬå¤©": 6867,
      "Ġäºļé©¬éĢĬ": 6868,
      "Ġæ¼«çĶ»": 6869,
      "Ġhelp": 6870,
      "ĠèĪªç©º": 6871,
      "ĠAf": 6872,
      "Ġchar": 6873,
      "Ġç´łè´¨": 6874,
      "Ġbased": 6875,
      "ĠåĽŀå¤į": 6876,
      "Ġåĳ¼åĲ¸": 6877,
      "é¢ľ": 6878,
      "Ġå¨ģèĥģ": 6879,
      "ĠæĶ¹è¿Ľ": 6880,
      "uch": 6881,
      "Ġéľį": 6882,
      "Ġå°ĳæķ°": 6883,
      "ĠéĢĲæŃ¥": 6884,
      "Ġæµģç¨ĭ": 6885,
      "AT": 6886,
      "å¹´äºº": 6887,
      "Ġèµ¤": 6888,
      "ĠåīįæıĲ": 6889,
      "Ġéģµ": 6890,
      "ĠåĪĽæĦı": 6891,
      "Ġç¾İå¥³": 6892,
      "ology": 6893,
      "ĠèµļéĴ±": 6894,
      "Ġæ£®": 6895,
      "Ġlook": 6896,
      "ĠéĢĻ": 6897,
      "ĠçĽ¸ä¼¼": 6898,
      "Ġçºªå½ķ": 6899,
      "Ġæ°Ľ": 6900,
      "ĠèŀįåĲĪ": 6901,
      "Ġç¡ķ": 6902,
      "ĠåĬłå¿«": 6903,
      "èĬ³": 6904,
      "Ġä¿ĿçķĻ": 6905,
      "Ġfac": 6906,
      "Ġeven": 6907,
      "ĠåŀĤ": 6908,
      "Ġå®ı": 6909,
      "Ġä¸ľåįĹ": 6910,
      "ĠTr": 6911,
      "Ġè£ħå¤ĩ": 6912,
      "æ¡¶": 6913,
      "resident": 6914,
      "ĠåĽ½äº§": 6915,
      "Ġterm": 6916,
      "Ġç³¯": 6917,
      "çĦ¦": 6918,
      "ents": 6919,
      "Ġå¼ķå¯¼": 6920,
      "åį±": 6921,
      "Ġè¯Ħä¼°": 6922,
      "Ġå¸Ŀ": 6923,
      "Ġconst": 6924,
      "æĸ¯åĿ¦": 6925,
      "èĤĮ": 6926,
      "ĠéĻķ": 6927,
      "ĠèĤ¡å¸Ĥ": 6928,
      "Ġä¸ļåĨħ": 6929,
      "åĽĬ": 6930,
      "ĠéģŃéģĩ": 6931,
      "éŃĤ": 6932,
      "ĠæĽ´é«ĺ": 6933,
      "Ġche": 6934,
      "ä¸ĢèĪ¬": 6935,
      "éĶ¦": 6936,
      "Ġçľĭæ³ķ": 6937,
      "ĠåİĤåķĨ": 6938,
      "Ġä»Ģä¹Īæł·": 6939,
      "Ġå©ļç¤¼": 6940,
      "Ġå¡ĳæĸĻ": 6941,
      "ield": 6942,
      "ump": 6943,
      "Ġeduc": 6944,
      "oh": 6945,
      "çĽĲ": 6946,
      "ä¸įäºĨ": 6947,
      "Ġå¥½åıĭ": 6948,
      "Ġä½ıåľ¨": 6949,
      "Ġä»¥å¤ĸ": 6950,
      "Ġæī¾ä¸įåĪ°": 6951,
      "Ġè¯ģæį®": 6952,
      "éħ¥": 6953,
      "å¿į": 6954,
      "ĠæŃĮæīĭ": 6955,
      "Ġå¾Īä¸ĢèĪ¬": 6956,
      "ĠåħĪè¿Ľ": 6957,
      "èĥĥ": 6958,
      "çĤ®": 6959,
      "Ġæ°ĽåĽ´": 6960,
      "èĤĥ": 6961,
      "ĠèĤ¾": 6962,
      "Ġway": 6963,
      "ished": 6964,
      "ĠæĬ¬": 6965,
      "æŁĶ": 6966,
      "æĭ¿å¤§": 6967,
      "Ġev": 6968,
      "Ġ<": 6969,
      "Ġè¾Ĩ": 6970,
      "ĠæĽĿåħī": 6971,
      "Ġæĭįçħ§": 6972,
      "ĠæĴĳ": 6973,
      "ĠåĪĨæīĭ": 6974,
      "Ġå¤§å¸Ī": 6975,
      "ĠæĮīæĳ©": 6976,
      "Ġè§Ĩè§ī": 6977,
      "Ġå§¿": 6978,
      "Ġå¤«å¦»": 6979,
      "inc": 6980,
      "Ġé¢Ħéĺ²": 6981,
      "ĠiPhone": 6982,
      "Ġwhile": 6983,
      "Ġèģļä¼ļ": 6984,
      "æİĺ": 6985,
      "å§Ķåĳĺä¼ļ": 6986,
      "Ġå¥¹è¯´": 6987,
      "Ġè½¬åŀĭ": 6988,
      "Ġè´¸": 6989,
      "ĠåĬłæĭ¿å¤§": 6990,
      "Ġéħ·": 6991,
      "å¾½": 6992,
      "Ġå§ļ": 6993,
      "Ġèº«æĿĲ": 6994,
      "Ġæĭĵ": 6995,
      "Ġè¿ĩäºİ": 6996,
      "ined": 6997,
      "ĠçĶ·å¥³": 6998,
      "Ġåıĳå¸ĥä¼ļ": 6999,
      "ources": 7000,
      "Ġå®¶æĹı": 7001,
      "ĠèĪŀåı°": 7002,
      "ĠæĬĦ": 7003,
      "Ġä¼Ļ": 7004,
      "Ġè·¯ä¸Ĭ": 7005,
      "Ġçĵ¦": 7006,
      "Ġret": 7007,
      "Ġåı¯è§ģ": 7008,
      "Ġä¼Ł": 7009,
      "tle": 7010,
      "Ġæ·±åº¦": 7011,
      "ĠæŁĵ": 7012,
      "ĠåĨ¯": 7013,
      "åıĤ": 7014,
      "ĠéĹŃ": 7015,
      "ĠæĹłçº¿": 7016,
      "ĠåĬłéĢŁ": 7017,
      "Ġmust": 7018,
      "Ġissu": 7019,
      "aj": 7020,
      "way": 7021,
      "ä»Ģ": 7022,
      "èĻļ": 7023,
      "ĠGovernment": 7024,
      "èĦĨ": 7025,
      "Ġæ¨¡æĭŁ": 7026,
      "Ġæĭ¨": 7027,
      "Ġèī°": 7028,
      "å£³": 7029,
      "çŁ©": 7030,
      "Ġè¯´å®ŀ": 7031,
      "Ġç±³é¥Ń": 7032,
      "Ġå½±çīĩ": 7033,
      "æ°Ľ": 7034,
      "Ġä¾Ĩ": 7035,
      "ĠFor": 7036,
      "éļĶ": 7037,
      "Ġåįıè°ĥ": 7038,
      "Ġåĩºåı°": 7039,
      "æ±½": 7040,
      "é¢ĸ": 7041,
      "Ġåħ±æľī": 7042,
      "Ġrele": 7043,
      "ĠéĢĤçĶ¨": 7044,
      "Ġåħ¥åı£": 7045,
      "å¹¿åľº": 7046,
      "ected": 7047,
      "ĠçĻ»è®°": 7048,
      "Ġæİ¢è®¨": 7049,
      "Ġä¸Ģä¸¤": 7050,
      "ĠçĶµåķĨ": 7051,
      "Ġåİ¨æĪ¿": 7052,
      "Ġè½¬ç§»": 7053,
      "ĠCommittee": 7054,
      "Ġä¸ĵè¾ĳ": 7055,
      "Ġvi": 7056,
      "Ġä¸ĸçķĮæĿ¯": 7057,
      "Ġstand": 7058,
      "ĠæĭĽèģĺ": 7059,
      "ĠæĹ©é¤Ĳ": 7060,
      "ĠåŁºåĽł": 7061,
      "Ġæĥ¨": 7062,
      "Ġåľ¨éĤ£éĩĮ": 7063,
      "è¾ĸ": 7064,
      "æĢĴ": 7065,
      "Ġåı¤ä»£": 7066,
      "Ġå¸ķ": 7067,
      "ĠåĮ»åŃ¦": 7068,
      "ĠäººåĿĩ": 7069,
      "Ġè¸¢": 7070,
      "ĠåŁºåľ°": 7071,
      "Ġè¯¢": 7072,
      "iron": 7073,
      "çĽĨ": 7074,
      "ĠæıĲç¤º": 7075,
      "ç»§": 7076,
      "è°ĭ": 7077,
      "ĠÃ": 7078,
      "ĠæĭĽçĶŁ": 7079,
      "ç¿Ķ": 7080,
      "ĠåģľæŃ¢": 7081,
      "ĠèĦĤèĤª": 7082,
      "ĠNew": 7083,
      "æ±¡": 7084,
      "Ġcontrol": 7085,
      "Ġsocial": 7086,
      "Ġä½İäºİ": 7087,
      "å¡ĺ": 7088,
      "æĩ": 7089,
      "è¯ģåĪ¸": 7090,
      "ĠéĿ©åĳ½": 7091,
      "ĠçģŃ": 7092,
      "ç»Ħç»ĩ": 7093,
      "åª": 7094,
      "ĠèĥľåĪ©": 7095,
      "ĠéĿĴå²Ľ": 7096,
      "Ġé«ĺäºİ": 7097,
      "Ġthen": 7098,
      "Ġå®¢è§Ĥ": 7099,
      "Ġå§ĭ": 7100,
      "æ»¨": 7101,
      "Ġæĥł": 7102,
      "Ġè¿Ł": 7103,
      "Ġè¾£æ¤Ĵ": 7104,
      "Ġauthor": 7105,
      "ĠäºĴçĽ¸": 7106,
      "çĭ±": 7107,
      "Ġåľ°éĿ¢": 7108,
      "åıī": 7109,
      "Ġç©¶ç«Ł": 7110,
      "ared": 7111,
      "ten": 7112,
      "ĠçĪ·": 7113,
      "ouse": 7114,
      "Ġé£İæĻ¯": 7115,
      "Ġåī§æĥħ": 7116,
      "ĠåŃ£åº¦": 7117,
      "ĠåºĶå¯¹": 7118,
      "åĩĮ": 7119,
      "ĠéĽĨä½ĵ": 7120,
      "Ġå¼Ģè½¦": 7121,
      "Ġé£ĺ": 7122,
      "ä¸»ä»»": 7123,
      "Ġè®¯": 7124,
      "ĠåĪĴç®Ĺ": 7125,
      "ms": 7126,
      "Ġæī¹è¯Ħ": 7127,
      "åıĳå±ķ": 7128,
      "èĽĭç³ķ": 7129,
      "ä¸įè¿ĩ": 7130,
      "Ġå³": 7131,
      "Ġèµ¶ç´§": 7132,
      "Ġè®¤åı¯": 7133,
      "ä¾ł": 7134,
      "Ġåıĳè¨Ģ": 7135,
      "Ġåľ°çĲĨ": 7136,
      "Ġç»ķ": 7137,
      "Ġcor": 7138,
      "Ġè¿ĽæĿ¥": 7139,
      "ases": 7140,
      "Ġæ±Ĺ": 7141,
      "Ġè¶ģ": 7142,
      "ave": 7143,
      "Ġsit": 7144,
      "å¤º": 7145,
      "Ġå¹ħ": 7146,
      "utions": 7147,
      "ĠåĬłçĽŁ": 7148,
      "æĢģåº¦": 7149,
      "Ġæĸ°æµª": 7150,
      "Ġdown": 7151,
      "ee": 7152,
      "Ġä¸»æµģ": 7153,
      "ĠéĢļè®¯": 7154,
      "Ġmat": 7155,
      "ç«¹": 7156,
      "ĠIP": 7157,
      "èĤ¿": 7158,
      "Ġç§»æ°ĳ": 7159,
      "ĠçĮĽ": 7160,
      "Ġè®¾è®¡å¸Ī": 7161,
      "Ġè¯ĨåĪ«": 7162,
      "èĤ¡ä»½": 7163,
      "å¿§": 7164,
      "Ġå¹¼åĦ¿": 7165,
      "Ġçĸı": 7166,
      "Ġçºµ": 7167,
      "Ġè´¢åĬ¡": 7168,
      "Ġèĩªä¿¡": 7169,
      "Ġçķħ": 7170,
      "Ġå¤§åİħ": 7171,
      "èº": 7172,
      "Ġè¯´åĪ°": 7173,
      "Ġä¸Ģéģį": 7174,
      "Ġä»£çĲĨ": 7175,
      "Ġå¤§ä¼ļ": 7176,
      "æ³ª": 7177,
      "Ġbuild": 7178,
      "Ġæ¸¸æ³³": 7179,
      "Ġå®ĹæķĻ": 7180,
      "ĠåĨįåĬł": 7181,
      "Ġéĩĳé¢Ŀ": 7182,
      "Ġä¸»äºº": 7183,
      "é²": 7184,
      "Ġå£«": 7185,
      "ĠåĳĬè¯īæĪĳ": 7186,
      "ĠèĴľ": 7187,
      "ĠæĥĬåĸľ": 7188,
      "ĠEx": 7189,
      "Ġåıįå¤į": 7190,
      "Ġä¹¦ç±į": 7191,
      "ĠèµĽäºĭ": 7192,
      "ĠåĨ²åĩ»": 7193,
      "ĠæĶ¾æĿ¾": 7194,
      "ĠåįĹæĸ¹": 7195,
      "Ġå´ĩ": 7196,
      "æķĮ": 7197,
      "ĠçĽĪåĪ©": 7198,
      "åĺ´": 7199,
      "Ġens": 7200,
      "ĠåłĨ": 7201,
      "Ġç¼´": 7202,
      "ĠåīįåĲİ": 7203,
      "Ġä¹ĺå®¢": 7204,
      "ĠåĲİæľŁ": 7205,
      "ĠéĢıæĺİ": 7206,
      "Ġä¸¤ä½į": 7207,
      "Ġè¾©": 7208,
      "Ġèºº": 7209,
      "Ġæ°ĳéĹ´": 7210,
      "Ġä¼łè¯´": 7211,
      "ĠéĦ": 7212,
      "oint": 7213,
      "ĠæīĶ": 7214,
      "Ġav": 7215,
      "åİ¢": 7216,
      "Ġnon": 7217,
      "ĠæĮ£": 7218,
      "urther": 7219,
      "Ġè¿ĽæĶ»": 7220,
      "ĠéļıæĹ¶": 7221,
      "åŃ¦å®¶": 7222,
      "Ġéĩįå¤į": 7223,
      "èĥĢ": 7224,
      "Ġâĺ": 7225,
      "Ġè¯Ŀè¯´": 7226,
      "çĸ¼": 7227,
      "èĥĨ": 7228,
      "Ġä¸įæĺİ": 7229,
      "ĠèĩŃ": 7230,
      "Ġå°ĳå¹´": 7231,
      "Ġçµ": 7232,
      "ĠæĦŁåĬ¨": 7233,
      "ĠçĤĸ": 7234,
      "åĴĮåĽ½": 7235,
      "Ġä¸´åºĬ": 7236,
      "ĠæĿĥåĬĽ": 7237,
      "ĠæĪ¿ä»·": 7238,
      "Ġbel": 7239,
      "ĠCl": 7240,
      "Ġå¹¶æľª": 7241,
      "ĠæĪ¿å±ĭ": 7242,
      "Ġè¾ŀ": 7243,
      "ability": 7244,
      "è´«": 7245,
      "Ġèİ·åıĸ": 7246,
      "ĠæĻĤ": 7247,
      "ĠæĻºæħ§": 7248,
      "Ġparticular": 7249,
      "Ġé¸¡èĤī": 7250,
      "ĠèĤ¿": 7251,
      "Ġå¥¶æ²¹": 7252,
      "Ġå°ıç»Ħ": 7253,
      "Ġå¿ł": 7254,
      "Ġæµİ": 7255,
      "æħİ": 7256,
      "Ġçľĭåĩº": 7257,
      "Ġwant": 7258,
      "Ġear": 7259,
      "Ġéķ¿å¤§": 7260,
      "ĠåĩĮæĻ¨": 7261,
      "Ġå¾ĹçŁ¥": 7262,
      "Ġthink": 7263,
      "Ġpropos": 7264,
      "åĩ¯": 7265,
      "å»¶": 7266,
      "ĠæīŃ": 7267,
      "Ġå¼Ĺ": 7268,
      "Ġorder": 7269,
      "ĠåıĻ": 7270,
      "Ġä¸²": 7271,
      "Ġçŀ¬éĹ´": 7272,
      "Ġè¾¾æĪĲ": 7273,
      "Ġimpro": 7274,
      "Ġè¯´å®ŀè¯Ŀ": 7275,
      "ĠæĭĶ": 7276,
      "Ġfact": 7277,
      "Ġè´ª": 7278,
      "eng": 7279,
      "Ġæ¶ĪåĮĸ": 7280,
      "Ġpur": 7281,
      "ize": 7282,
      "éľ¸": 7283,
      "å¿ł": 7284,
      "ĠèĬĴæŀľ": 7285,
      "ĠæĹłéĻĲ": 7286,
      "ĠåĽŀå½Ĵ": 7287,
      "Ġæ²¡æľīäºĨ": 7288,
      "è¿ĺ": 7289,
      "å«©": 7290,
      "éĩĩ": 7291,
      "Ġè¿Ī": 7292,
      "ĠçĤ¹èıľ": 7293,
      "è¿Ł": 7294,
      "Ġæ°Ķæ°Ľ": 7295,
      "Ġæ³°åĽ½": 7296,
      "Ġæ¡Īä¾ĭ": 7297,
      "å¯¨": 7298,
      "Ġæ¸ħæ´ģ": 7299,
      "med": 7300,
      "Ġçİ°æľī": 7301,
      "Ġday": 7302,
      "åºĻ": 7303,
      "ĠåĪĨåŃĲ": 7304,
      "Ġæĺİå¹´": 7305,
      "ĠåĨ»": 7306,
      "Ġæ°ĳä¼Ĺ": 7307,
      "ç²¹": 7308,
      "Ġå°ıåºĹ": 7309,
      "åħ½": 7310,
      "å°ĺ": 7311,
      "ĠèĥĨ": 7312,
      "ĠåĨįæĿ¥": 7313,
      "ĠçŃīäºº": 7314,
      "ĠæĦŁåħ´è¶£": 7315,
      "æĵį": 7316,
      "Ġå·´è¥¿": 7317,
      "Ġä¸´æĹ¶": 7318,
      "Ġæ²ĥ": 7319,
      "ĠåĨĽéĺŁ": 7320,
      "iod": 7321,
      "ĠÐ¼": 7322,
      "AR": 7323,
      "Ġä¹Łä¸į": 7324,
      "Ġassist": 7325,
      "Ġspecial": 7326,
      "Ġèĳ±": 7327,
      "Ġèķ": 7328,
      "Ġè¾ĵåħ¥": 7329,
      "Ġå®¶ä¸Ń": 7330,
      "Ġpolit": 7331,
      "Ġdist": 7332,
      "Ġè¿Ĳè¾ĵ": 7333,
      "èµ«": 7334,
      "ķæīĢ": 7335,
      "Ġä»£çłģ": 7336,
      "Ġå¥½å¤Ħ": 7337,
      "çħ®": 7338,
      "Ġé£ŁåłĤ": 7339,
      "Ġåħ¬çĽĬ": 7340,
      "Ġé¦Ļåĳ³": 7341,
      "Ġèµ°è¿Ľ": 7342,
      "Ġèĥ½åĲ¦": 7343,
      "Ġåı¯èĥ½æĢ§": 7344,
      "Ġè´¸æĺĵ": 7345,
      "ather": 7346,
      "ĠçīĽå¥¶": 7347,
      "Ġä¸Ģåº¦": 7348,
      "Ġå¤ĸåįĸ": 7349,
      "å·¥ä½ľ": 7350,
      "åĴĸ": 7351,
      "Ġmarket": 7352,
      "Ġæ»ļ": 7353,
      "ĠèĬĤå¥ı": 7354,
      "ĠæħĪ": 7355,
      "Ġè²": 7356,
      "ĠApp": 7357,
      "Ġä¸įè§ģ": 7358,
      "çĩ¥": 7359,
      "æįķ": 7360,
      "Ġå¥½å¥ĩ": 7361,
      "Ġåį°åĪ·": 7362,
      "Ġä»ĺåĩº": 7363,
      "ĠçĪĨåıĳ": 7364,
      "æĢ¨": 7365,
      "Ġåĳ¨æľŁ": 7366,
      "ĠæľĢä¸º": 7367,
      "Ġåĭ¾": 7368,
      "åħ¬è·¯": 7369,
      "Ġæĸ°åĬł": 7370,
      "ĠæĮģæľī": 7371,
      "Ġåıªå¥½": 7372,
      "èĽĻ": 7373,
      "Ġhand": 7374,
      "Ġåľ°éľĩ": 7375,
      "Ġæ³¨éĩį": 7376,
      "ĠéĢļéģĵ": 7377,
      "Ġå¸ĪåĤħ": 7378,
      "IN": 7379,
      "ĠåĨįåĬłä¸Ĭ": 7380,
      "ĠæĻķ": 7381,
      "Ġä¹Ļ": 7382,
      "Ġè¿«": 7383,
      "Ġcost": 7384,
      "ĠQQ": 7385,
      "Ġåı¦ä¸Ģæĸ¹éĿ¢": 7386,
      "ĠæĴķ": 7387,
      "æ¸¡": 7388,
      "ĠéĽĨåĽ¢": 7389,
      "Ġpoint": 7390,
      "atic": 7391,
      "Ġé¢ģ": 7392,
      "Ġä¸ĬåŃ¦": 7393,
      "è°Ĳ": 7394,
      "è¥¿äºļ": 7395,
      "Ġç¦»å©ļ": 7396,
      "Ġå¼¯": 7397,
      "ĠRep": 7398,
      "Ġå²Ĺä½į": 7399,
      "Ġservices": 7400,
      "Ġval": 7401,
      "æī§": 7402,
      "ĠåıĳèĤ²": 7403,
      "Ġåįķçº¯": 7404,
      "Ġçī©åĵģ": 7405,
      "é¥±": 7406,
      "Ġeconomic": 7407,
      "ĠæĶ¾å¿ĥ": 7408,
      "Ġè¢ģ": 7409,
      "Ġconsid": 7410,
      "ĠçĶ·åıĭ": 7411,
      "æ¶Ľ": 7412,
      "Ġæ¥¼ä¸ĭ": 7413,
      "ĠæŃ¦åĻ¨": 7414,
      "lob": 7415,
      "Ġä¸ĳ": 7416,
      "ç¿°": 7417,
      "Ġç®Ģç§°": 7418,
      "Ġelect": 7419,
      "Ġä¸Ģåı¥è¯Ŀ": 7420,
      "¤ç»´": 7421,
      "éĤ®": 7422,
      "Ġèĩªä»İ": 7423,
      "Ġæĺİæĺİ": 7424,
      "ĠåĳĬçŁ¥": 7425,
      "ä¸ŃåŃ¦": 7426,
      "Ġçī¹æĢ§": 7427,
      "Ġå¯¹è¯Ŀ": 7428,
      "ĠæĢĿè·¯": 7429,
      "Ġä¸Ĭè¯¾": 7430,
      "Ġè¯¢éĹ®": 7431,
      "Ġæī¿è¯º": 7432,
      "Ġè¯ĳ": 7433,
      "Ġä¼ĺéĽħ": 7434,
      "Ġè¿ĲåĬ¨åĳĺ": 7435,
      "ĠåĲĦèĩª": 7436,
      "ĠéŃħåĬĽ": 7437,
      "ww": 7438,
      "Ġæ¸©æļĸ": 7439,
      "Ġå®ł": 7440,
      "éŃĶ": 7441,
      "ĠéģĹæĨ¾": 7442,
      "Ġç¼ºçĤ¹": 7443,
      "Ġactivities": 7444,
      "è¢ĸ": 7445,
      "ling": 7446,
      "è¾Ľ": 7447,
      "ĠéŃı": 7448,
      "Ġlife": 7449,
      "ĠèĢĥçłĶ": 7450,
      "ĠéļıæĦı": 7451,
      "Ġaff": 7452,
      "Ġview": 7453,
      "åĩºæīĢ": 7454,
      "Ġåľ°ä¸Ĭ": 7455,
      "Ġæĸ°åĬłåĿ¡": 7456,
      "Ġè´¾": 7457,
      "ĠåŃ¦èĢħ": 7458,
      "Ġæµĵéĥģ": 7459,
      "é¹ı": 7460,
      "ĠåĪĨéħį": 7461,
      "Ġå¤©ä¸ĭ": 7462,
      "ĠçĹħæĥħ": 7463,
      "Ġèµ¢å¾Ĺ": 7464,
      "Ġä¸Ģæī¹": 7465,
      "Ġåħ¬åĳĬ": 7466,
      "Ġsay": 7467,
      "Ġæ¯Ķèµ·": 7468,
      "ulation": 7469,
      "Ġå·´é»İ": 7470,
      "Ġé¡ºä¾¿": 7471,
      "ased": 7472,
      "mit": 7473,
      "ĠèµĮ": 7474,
      "Ġåį¤": 7475,
      "æĹĭ": 7476,
      "Ġå£®": 7477,
      "Ġåİ¦": 7478,
      "ĠåĪ¸": 7479,
      "Ġéľ¸": 7480,
      "ĠæľįåĬ¡æĢģåº¦": 7481,
      "Ġï¼į": 7482,
      "ç¦ģ": 7483,
      "éī´": 7484,
      "ĠçĶľåĵģ": 7485,
      "ĠçĨ¬": 7486,
      "imes": 7487,
      "åħ¬å®ī": 7488,
      "çº±": 7489,
      "Ġå·¥äºº": 7490,
      "Ġaccord": 7491,
      "Ġæ¸ħæ·¡": 7492,
      "ĠIs": 7493,
      "pr": 7494,
      "æ´ª": 7495,
      "Ġconcern": 7496,
      "inal": 7497,
      "read": 7498,
      "èĤļ": 7499,
      "Ġboth": 7500,
      "éħ·": 7501,
      "Ġåĺ¿": 7502,
      "äººå£«": 7503,
      "Ġè®²è¿°": 7504,
      "ĠæĿ¥äºĨ": 7505,
      "å°º": 7506,
      "æ·ĭ": 7507,
      "Ġç§¯ç´¯": 7508,
      "ĠåįģäºĮ": 7509,
      "ĠçģĮ": 7510,
      "é¦¨": 7511,
      "AN": 7512,
      "ization": 7513,
      "é¥º": 7514,
      "Ġç»´çĶŁç´ł": 7515,
      "ON": 7516,
      "Ġåķ¤éħĴ": 7517,
      "½åŃĲ": 7518,
      "Ġæľºåħ³": 7519,
      "èĤ¯": 7520,
      "ĠéĿŀæ³ķ": 7521,
      "Ġmembers": 7522,
      "èį·": 7523,
      "Ġåįģè¶³": 7524,
      "Ġç¥ŀç§ĺ": 7525,
      "ĠåĴĮå¹³": 7526,
      "Ġå¯¹åħ¶": 7527,
      "Ġå½ķåıĸ": 7528,
      "Ġå¯¹åºĶ": 7529,
      "Ġä¸ĢçĻ¾": 7530,
      "ĠÃĹ": 7531,
      "Ġä¸ĭçıŃ": 7532,
      "Ġunited": 7533,
      "åı¯ä»¥": 7534,
      "çī¹èī²": 7535,
      "Ġèĥ½æºĲ": 7536,
      "Ġéĥ¨ä½į": 7537,
      "Ġæ°§": 7538,
      "Ġä¸ºæŃ¤": 7539,
      "ĠèĦ¸ä¸Ĭ": 7540,
      "ĠåħħçĶµ": 7541,
      "ĠæĪĲæŀľ": 7542,
      "ĠéĶ¦": 7543,
      "å²Ń": 7544,
      "Ġç¦ģæŃ¢": 7545,
      "åŁ¹": 7546,
      "Ġdel": 7547,
      "ĠèµĶåģ¿": 7548,
      "Ġä¿¡ä»»": 7549,
      "æ¯ģ": 7550,
      "Ġmanagement": 7551,
      "ĠæĪĴ": 7552,
      "çĺ¾": 7553,
      "Ġå·¥åİĤ": 7554,
      "Ġå¥ĩæĢª": 7555,
      "ĠéĤ£æĹ¶": 7556,
      "Ġé¡¿": 7557,
      "ĠSc": 7558,
      "ĠæĶ¶èİ·": 7559,
      "Ġçĸ¼çĹĽ": 7560,
      "Ġå©´": 7561,
      "Ġå°Ŀå°Ŀ": 7562,
      "Ġé£ŁçĶ¨": 7563,
      "ommend": 7564,
      "é¸£": 7565,
      "Ġä¿Ĺ": 7566,
      "æĸ¹ä¾¿": 7567,
      "å°±æĺ¯": 7568,
      "Ġåħ¬åĬ¡åĳĺ": 7569,
      "Ġéģ®": 7570,
      "Ġå¤§æ°Ķ": 7571,
      "ari": 7572,
      "åİĮ": 7573,
      "ĠçŃīåĪ°": 7574,
      "Ġrepresent": 7575,
      "Ġèīºæľ¯å®¶": 7576,
      "Ġåĩºèī²": 7577,
      "Ġæº¶": 7578,
      "æİĮ": 7579,
      "ĠèĬ±çĶŁ": 7580,
      "Ġè¡°": 7581,
      "åī¯": 7582,
      "Ġter": 7583,
      "Ġæ¶Īå¤±": 7584,
      "ĠæĮ¯": 7585,
      "Ġèµ°åĲĳ": 7586,
      "Ġåıįå¼¹": 7587,
      "Ġæŀģå¤§": 7588,
      "Ġåı¸æ³ķ": 7589,
      "ĠæīĢè¯´": 7590,
      "ĠæģĭçĪ±": 7591,
      "Ġschool": 7592,
      "Ġä¸Ģèµ·åİ»": 7593,
      "ĠèĴĭ": 7594,
      "ĠæĢ§è´¨": 7595,
      "Ġçī©æµģ": 7596,
      "Ġç²¤": 7597,
      "Ġå¸®å¿Ļ": 7598,
      "Ġèµ°åĬ¿": 7599,
      "Ġæĳĺ": 7600,
      "Ġæľ¬è´¨": 7601,
      "ĠåĳĨ": 7602,
      "Ġå¼ĢåĲ¯": 7603,
      "Ġå¤ļåħĥ": 7604,
      "Ġæķ´åĲĪ": 7605,
      "Ġä¸Ģé¡¿": 7606,
      "ĠåĲįåįķ": 7607,
      "ered": 7608,
      "Ġç¼ĵè§£": 7609,
      "Ġä¼¦æķ¦": 7610,
      "Ġå£°æĺİ": 7611,
      "Ġdirect": 7612,
      "Ġç¾½": 7613,
      "Ġåħĳ": 7614,
      "ĠÐ¿": 7615,
      "ĠåĮĹæĸ¹": 7616,
      "ĠçĿ¡çľł": 7617,
      "ĠçĪĨçĤ¸": 7618,
      "Ġpresent": 7619,
      "å¸®": 7620,
      "Ġè¿ĻæĹ¶": 7621,
      "viron": 7622,
      "Ġå¢ĵ": 7623,
      "Ġsim": 7624,
      "Ġé¢ĺçĽ®": 7625,
      "Ġfound": 7626,
      "Ġä»ªå¼ı": 7627,
      "Ġä¸ĢçĶŁ": 7628,
      "iven": 7629,
      "ĠçĽĴ": 7630,
      "Ġè¡¬": 7631,
      "ĠéĻĮ": 7632,
      "Ġå¯¹å¤ĸ": 7633,
      "ĠUS": 7634,
      "è¾ĪåŃĲ": 7635,
      "æħ°": 7636,
      "ĠGeneral": 7637,
      "æ¶µ": 7638,
      "èİ«": 7639,
      "Ġå§Ķåĳĺä¼ļ": 7640,
      "Ġæ²ª": 7641,
      "Ġå°ıæľĭåıĭ": 7642,
      "ĠåŃ£èĬĤ": 7643,
      "ä¹Ł": 7644,
      "Ġfore": 7645,
      "ĠåĪļå¥½": 7646,
      "Ġprovide": 7647,
      "ĠåĬ¨æĢģ": 7648,
      "Ġpos": 7649,
      "Ġå¥³åıĭ": 7650,
      "Ġç¦ıå»º": 7651,
      "Ġèĥ½ä¸įèĥ½": 7652,
      "Ġæĥ³çĿĢ": 7653,
      "Ġsecond": 7654,
      "Ġå¥ĭ": 7655,
      "Ġåıĳç¥¨": 7656,
      "ĠæľĭåıĭåľĪ": 7657,
      "Ġé¢Ī": 7658,
      "Ġå¤ĸåľ°": 7659,
      "Ġç½Ĺé©¬": 7660,
      "æĪļ": 7661,
      "å¤§åĪ©äºļ": 7662,
      "Ġ@": 7663,
      "Ġæ²¡æ³ķ": 7664,
      "Ġsince": 7665,
      "Ġéķ¿æĹ¶éĹ´": 7666,
      "ĠåŃ©åŃĲä»¬": 7667,
      "å°¬": 7668,
      "ĠæĹ©å°±": 7669,
      "Ġä½ĵéĩį": 7670,
      "ĠèĢĥå¯Ł": 7671,
      "Ġç¡¬ä»¶": 7672,
      "çĶĺ": 7673,
      "ER": 7674,
      "Ġæĥ¯": 7675,
      "Ġå®īéĿĻ": 7676,
      "åı¯èĥ½": 7677,
      "Ġé«ĺåħ´": 7678,
      "Ġä»¥å¾Ģ": 7679,
      "Ġdesign": 7680,
      "Ġä¸įä»ħä»ħ": 7681,
      "Ġæī®": 7682,
      "Ġä¸īæĸĩ": 7683,
      "Ġæķ²": 7684,
      "æľįåĬ¡": 7685,
      "Ġç§ģäºº": 7686,
      "Ġè®¿éĹ®": 7687,
      "Ġä»ĵ": 7688,
      "ĠPl": 7689,
      "Ġå°´": 7690,
      "Ġèµ´": 7691,
      "Ġåłµ": 7692,
      "ages": 7693,
      "Ġæ²Ļåıĳ": 7694,
      "ĠçĮ®": 7695,
      "Ġè¯ķåĽ¾": 7696,
      "Ġæ²¡äºĨ": 7697,
      "Ġåĭ¤": 7698,
      "Ġä½ĵä¼ļ": 7699,
      "Ġimplementation": 7700,
      "Ġä¸»åĬĽ": 7701,
      "Ġåıĳè¾¾": 7702,
      "Ġä¸įå®¹æĺĵ": 7703,
      "ience": 7704,
      "Ġæ²³åĮĹ": 7705,
      "Ġå±±è¥¿": 7706,
      "ä½©": 7707,
      "alk": 7708,
      "ins": 7709,
      "ars": 7710,
      "ody": 7711,
      "Ġstill": 7712,
      "uation": 7713,
      "Ġå°´å°¬": 7714,
      "Ġçĵľ": 7715,
      "æ©": 7716,
      "ä¾Ĩ": 7717,
      "ĠåīįæľŁ": 7718,
      "Ġsame": 7719,
      "Ġè¿Ļä¸ĢçĤ¹": 7720,
      "ĠæĤł": 7721,
      "Ġå¸¦æľī": 7722,
      "ross": 7723,
      "outh": 7724,
      "ĠæĹłå¥Ī": 7725,
      "ĠèĢĹ": 7726,
      "Ġå¾Īéĩįè¦ģ": 7727,
      "Ġä¼ª": 7728,
      "ĠÑĥ": 7729,
      "ĠæĭŁ": 7730,
      "ĠæĹłçĸĳ": 7731,
      "æľºåħ³": 7732,
      "Ġhtt": 7733,
      "ĠæīĵåĮħ": 7734,
      "èĩĤ": 7735,
      "enn": 7736,
      "Ġåĵ¥åĵ¥": 7737,
      "èĵī": 7738,
      "ason": 7739,
      "Ġä¹°åĪ°": 7740,
      "èĳ±": 7741,
      "ĠæĬĬæı¡": 7742,
      "minist": 7743,
      "Ġçī¹ä»·": 7744,
      "Ġå¤ļä¹Ī": 7745,
      "Ġåħ¨èº«": 7746,
      "Ġè¥¿éĥ¨": 7747,
      "Ġè°ĥèĬĤ": 7748,
      "ĠéģŃåĪ°": 7749,
      "ä»°": 7750,
      "ploy": 7751,
      "Ġåįİä¸º": 7752,
      "ĠåĮĹäº¬å¸Ĥ": 7753,
      "ll": 7754,
      "Ġä½ľå®¶": 7755,
      "ç²®": 7756,
      "Ġä¸īå¤§": 7757,
      "ĠèĤ¡æĿĥ": 7758,
      "Ġæ¿ĢçĥĪ": 7759,
      "ĠéĽĦ": 7760,
      "Ġå¼Ģä¸ļ": 7761,
      "Ġcre": 7762,
      "ĠæĦŁåıĹåĪ°": 7763,
      "Ġè´¢å¯Į": 7764,
      "Ġåħ»èĢģ": 7765,
      "æľºæŀĦ": 7766,
      "ED": 7767,
      "Ġçĸ¯çĭĤ": 7768,
      "Ġä»ĬåĲİ": 7769,
      "ĠèģĶçĽŁ": 7770,
      "åİ¦": 7771,
      "Ġçĸ«": 7772,
      "Ġæ¾³å¤§åĪ©äºļ": 7773,
      "ĠåĲĪæ³ķ": 7774,
      "ĠéĨī": 7775,
      "Ġlar": 7776,
      "aken": 7777,
      "æ²Ł": 7778,
      "ĠåĸľçĪ±": 7779,
      "æĸĳ": 7780,
      "Ġçľī": 7781,
      "ªæĺİ": 7782,
      "ession": 7783,
      "Ġé¢Ħç®Ĺ": 7784,
      "ĠOr": 7785,
      "Ġåľ°éģĵ": 7786,
      "Ġåľ¨åĨħ": 7787,
      "Ġæ¸ħæĸ°": 7788,
      "æĿİ": 7789,
      "Ġå·®åĪ«": 7790,
      "ĠOn": 7791,
      "Ġç»Ŀå¤§": 7792,
      "Ġå¥½ä¹ħ": 7793,
      "Ġposs": 7794,
      "ĠèĢĲå¿ĥ": 7795,
      "Ġåıĳåŀĭ": 7796,
      "æĴŀ": 7797,
      "Ġå½ĵä½ł": 7798,
      "Ġäºķ": 7799,
      "èĬĿ": 7800,
      "Ġä¸»ä½ĵ": 7801,
      "åı¹": 7802,
      "Ġrecommend": 7803,
      "ĠåĸĤ": 7804,
      "ä¿ĿéĻ©": 7805,
      "Ġæµ·åĨĽ": 7806,
      "æħķ": 7807,
      "Ġæ³Ľ": 7808,
      "Ġæ£ī": 7809,
      "Ġair": 7810,
      "ised": 7811,
      "çĸĳäºº": 7812,
      "Ġé¥ºåŃĲ": 7813,
      "Ġcare": 7814,
      "vironment": 7815,
      "Ġçĩķ": 7816,
      "å°ĳå¹´": 7817,
      "Ġè¡¨æĥħ": 7818,
      "Ġviol": 7819,
      "Ġæ¹ĺ": 7820,
      "ek": 7821,
      "æµ©": 7822,
      "æĤŁ": 7823,
      "Ġå°ĳå¥³": 7824,
      "ĠæĿ¥è®²": 7825,
      "çĲ³": 7826,
      "ired": 7827,
      "å£¤": 7828,
      "duct": 7829,
      "ĠåĨ²çªģ": 7830,
      "æµ´": 7831,
      "ĠåĽĽå¹´": 7832,
      "Ġæ²¡äºĭ": 7833,
      "Ġperiod": 7834,
      "Ġæľīçī¹èī²": 7835,
      "ĠåĪĹè½¦": 7836,
      "Ġç¬¬äºĶ": 7837,
      "å®ı": 7838,
      "Ġæīĳ": 7839,
      "Ġåīĳ": 7840,
      "Ġå²©": 7841,
      "Ġè¶ĬåįĹ": 7842,
      "åĲ¨": 7843,
      "Ġfinancial": 7844,
      "èīĩ": 7845,
      "Ġæĥ³è¯´": 7846,
      "Ġregard": 7847,
      "ĠåĩĿ": 7848,
      "åĩ¤": 7849,
      "ĠåĪĨæķ°": 7850,
      "Ġé¢Ħçº¦": 7851,
      "Ġçī¹æĦı": 7852,
      "Ġå±ĤéĿ¢": 7853,
      "Ġé¢ĨåħĪ": 7854,
      "Ġåĩºå¸Ń": 7855,
      "ĠæĳĶ": 7856,
      "äºŃ": 7857,
      "ified": 7858,
      "Ġæ²¡åĬŀæ³ķ": 7859,
      "Ġæĸĩèīº": 7860,
      "Ġæĺİå¤©": 7861,
      "ĠéĶĻè¿ĩ": 7862,
      "ĠéĩĬæĶ¾": 7863,
      "gg": 7864,
      "ĠæĹ¶åĪ»": 7865,
      "Ġcomple": 7866,
      "ean": 7867,
      "Ġèħ¾è®¯": 7868,
      "ä¼¸": 7869,
      "ç®Ģåįķ": 7870,
      "Ġç¬ĶèĢħ": 7871,
      "çĥĤ": 7872,
      "Ġå°ıå§Ĳ": 7873,
      "Ġå½Ń": 7874,
      "Ġæ·ĭ": 7875,
      "Ġç¢°åĪ°": 7876,
      "Ġè¾ĵåĩº": 7877,
      "ĠçĽ¸æľº": 7878,
      "Ġtreat": 7879,
      "Ġå¹´çºª": 7880,
      "Ġè§ģéĿ¢": 7881,
      "ness": 7882,
      "Ġéļľ": 7883,
      "ĠèįĴ": 7884,
      "Ġä½ĵåĪ¶": 7885,
      "Ġä¸įèī¯": 7886,
      "ention": 7887,
      "ik": 7888,
      "ä»¶äºĭ": 7889,
      "ĠéĻķè¥¿": 7890,
      "Ġ|": 7891,
      "Ġold": 7892,
      "Ġå¹»": 7893,
      "DP": 7894,
      "ĠåĢĻ": 7895,
      "Ġä¸ľäº¬": 7896,
      "Ġquot": 7897,
      "ĠIf": 7898,
      "åĻ": 7899,
      "Ġæĸľ": 7900,
      "Ġèıł": 7901,
      "èĮ¨": 7902,
      "Ġaccount": 7903,
      "ĠèĽ®å¥½": 7904,
      "ĠæŁ³": 7905,
      "ists": 7906,
      "Ġins": 7907,
      "èĢģå¸Ī": 7908,
      "Ġè¯´è¿ĩ": 7909,
      "Ġå¼ºåĮĸ": 7910,
      "ES": 7911,
      "ĠåĽ´ç»ķ": 7912,
      "éľľ": 7913,
      "ĠçĽ¸å½ĵäºİ": 7914,
      "Ġmonth": 7915,
      "ferent": 7916,
      "çİ²": 7917,
      "Ġå®¾": 7918,
      "ĠéªĮè¯ģ": 7919,
      "ĠåıĤè§Ĥ": 7920,
      "ĠåĴĮè°Ĳ": 7921,
      "éŁ³ä¹Ĳ": 7922,
      "Ġä¸įè´µ": 7923,
      "ues": 7924,
      "æĹ¥æĬ¥": 7925,
      "Ġä¼¯": 7926,
      "åħ±åĴĮåĽ½": 7927,
      "Ġæ¬¾å¼ı": 7928,
      "ĠéĢīä¸¾": 7929,
      "ĠæľĪåºķ": 7930,
      "Ġä½ıå®ħ": 7931,
      "ĠçŁŃä¿¡": 7932,
      "çĵ·": 7933,
      "Ġåħ¨å¸Ĥ": 7934,
      "Ġè¿ĩåº¦": 7935,
      "ĠäºĶå¹´": 7936,
      "ĠçİĽ": 7937,
      "Ġåľ°åĽ¾": 7938,
      "Ġä¸ĢåłĨ": 7939,
      "ç¹ģ": 7940,
      "Ġéĥģ": 7941,
      "Ġwater": 7942,
      "Ġæĺ¥èĬĤ": 7943,
      "Ġå¤§åĬĽ": 7944,
      "Ġè½¬åıĺ": 7945,
      "ĠæĴŃæĶ¾": 7946,
      "Ġä¸Ĭå¸Ĥåħ¬åı¸": 7947,
      "Ġéģ¥": 7948,
      "Ġå°ļæľª": 7949,
      "ĠåĪĽå»º": 7950,
      "Ġéĺ¿å§¨": 7951,
      "Ġäºīè®®": 7952,
      "Ġå±ķè§Ī": 7953,
      "Ġçł¸": 7954,
      "Ġpract": 7955,
      "æł¼åħ°": 7956,
      "ĠèĻİ": 7957,
      "Ġç¡ķå£«": 7958,
      "Ġä¾Ŀæ³ķ": 7959,
      "ĠåĪĿæŃ¥": 7960,
      "Ġèİ±": 7961,
      "ĦåŃĲ": 7962,
      "ĠPC": 7963,
      "ç¢Ł": 7964,
      "Ġå¥¶å¥¶": 7965,
      "Ġdata": 7966,
      "Ġæ±ª": 7967,
      "Ġpop": 7968,
      "Ġæļĳ": 7969,
      "Ġapplic": 7970,
      "ĠæĳĬ": 7971,
      "ĠåĲİèĢħ": 7972,
      "Ġä½łå¥½": 7973,
      "ä¼Ĳ": 7974,
      "èµĦæºĲ": 7975,
      "Ġå°ºå¯¸": 7976,
      "Ġå½¢å®¹": 7977,
      "lobal": 7978,
      "Ġè®ºæĸĩ": 7979,
      "Ġå¾®è½¯": 7980,
      "ĠåĨ³çŃĸ": 7981,
      "Ġå½±åĵįåĬĽ": 7982,
      "ĠæĹ©å·²": 7983,
      "Ġä¼ļè®¡": 7984,
      "é¥¨": 7985,
      "Ġé«ĺå³°": 7986,
      "Ġpost": 7987,
      "Ġä¸Ģé¢Ĺ": 7988,
      "Ġä¸Ģä½ĵ": 7989,
      "Ġå¤ªå¹³": 7990,
      "Ġfurther": 7991,
      "Ġä¸Ģçķª": 7992,
      "Ħé¥¨": 7993,
      "ĠåĶ®ä»·": 7994,
      "ĠåĪ°å¤Ħ": 7995,
      "Ġæľīæľº": 7996,
      "Ġæ¡ĳ": 7997,
      "Ġæİ¥çĿĢ": 7998,
      "Ġå¾ĪèĪĴæľį": 7999,
      "ĠCouncil": 8000,
      "Ġä½įåŃĲ": 8001,
      "Ġå§Ķåĳĺ": 8002,
      "Ġå¤ļå¤§": 8003,
      "ĠèĢĥèĻĳåĪ°": 8004,
      "åħĭæĸ¯": 8005,
      "Ġå¸ĤåĮº": 8006,
      "Ġæ½ĺ": 8007,
      "Ġreview": 8008,
      "Ġä½ıæĪ¿": 8009,
      "Ġproble": 8010,
      "Ġç§įæ¤į": 8011,
      "éĺĶ": 8012,
      "ĠåĲİæĤĶ": 8013,
      "Ġèľľ": 8014,
      "ĠæŁ´": 8015,
      "èĬ½": 8016,
      "Ġå¼Łå¼Ł": 8017,
      "Ġå¯¹å¾ħ": 8018,
      "ĠèľĤ": 8019,
      "Ġåĳ½åĲį": 8020,
      "ĠéĽ¶åĶ®": 8021,
      "Ġè¥¿åĮĹ": 8022,
      "Ġdoes": 8023,
      "ĠéĢģåĪ°": 8024,
      "ĠæĦŁåĨĴ": 8025,
      "Ġpeace": 8026,
      "Ġæµ¸": 8027,
      "Ġéł": 8028,
      "Ġå¼¥": 8029,
      "Ġçĥ¤èĤī": 8030,
      "Ġæ¯ıæĹ¥": 8031,
      "Ġè·ĳæŃ¥": 8032,
      "Ġèµ°åĩº": 8033,
      "è´¯": 8034,
      "Ġè®¾å®ļ": 8035,
      "Ġèŀº": 8036,
      "ĠäººæĢ§": 8037,
      "Ġäº²èĩª": 8038,
      "Ġresolution": 8039,
      "Ġå¿ĥèĦı": 8040,
      "åªĴä½ĵ": 8041,
      "Ġèº²": 8042,
      "ĠNo": 8043,
      "åģ·": 8044,
      "ç§Ĵ": 8045,
      "Ġå¤ĸäº¤": 8046,
      "ĠåºĹåĳĺ": 8047,
      "Ġåıªä¸įè¿ĩ": 8048,
      "ĠæĬ¥èŃ¦": 8049,
      "Ġeducation": 8050,
      "ier": 8051,
      "æĹ¬": 8052,
      "retary": 8053,
      "Ġåį±æľº": 8054,
      "Ġhead": 8055,
      "Ġå¥½ä¸į": 8056,
      "Ġç¾İå®¹": 8057,
      "Ġéĵ¾æİ¥": 8058,
      "Ġadop": 8059,
      "Ġå±Ĥæ¬¡": 8060,
      "Ġanal": 8061,
      "Ġä¿¡å¿ĥ": 8062,
      "ĠçĤ®": 8063,
      "Ġçº¿è·¯": 8064,
      "Ġçħ²": 8065,
      "Ġå®³æĢķ": 8066,
      "Ġè´¦æĪ·": 8067,
      "æłı": 8068,
      "Ġè±ªåįİ": 8069,
      "ĠçķªèĮĦ": 8070,
      "Ġå¤§ä¸Ģ": 8071,
      "éĤĢ": 8072,
      "Ġâĺħ": 8073,
      "Ġéĥ¨éķ¿": 8074,
      "Ġæ¶Īéĺ²": 8075,
      "ä»¿": 8076,
      "ĠåºĹéĵº": 8077,
      "Ġæ´»è·ĥ": 8078,
      "Ġmuch": 8079,
      "Ġæ¹ĸåĮĹ": 8080,
      "æĬķèµĦ": 8081,
      "Ġâĸ¼": 8082,
      "Ġapos": 8083,
      "å»Ĭ": 8084,
      "Ġè§£æĶ¾": 8085,
      "Ġå¥³åŃ©åŃĲ": 8086,
      "Ġèĭıå·ŀ": 8087,
      "ĠåĹ¯": 8088,
      "Ġä¼Łå¤§": 8089,
      "å¢¨": 8090,
      "Ġéĺ¿å°Ķ": 8091,
      "ature": 8092,
      "Ġåįķè¯į": 8093,
      "ĠåİŁæĸĻ": 8094,
      "Ġstates": 8095,
      "Ġè¡¥è´´": 8096,
      "Ġshow": 8097,
      "ĠåĩŃåĢŁ": 8098,
      "ĠæĪĳçļĦ": 8099,
      "Ġæ°ĶåĢĻ": 8100,
      "æĹ¶ä»£": 8101,
      "Ġæ²¾": 8102,
      "ĠçĶ±æŃ¤": 8103,
      "ĠåĲ¨": 8104,
      "Ġå¤§èµĽ": 8105,
      "Ġåľ°è¯´": 8106,
      "ĠæĶ¶éĽĨ": 8107,
      "çĽĪ": 8108,
      "ĠæŁ¥è¯¢": 8109,
      "Ġæµªæ¼«": 8110,
      "Ġå¼ķè¿Ľ": 8111,
      "ç¤¾ä¼ļ": 8112,
      "ĠæľīåĪ©äºİ": 8113,
      "ĠMM": 8114,
      "Ġcoop": 8115,
      "Ġæ»¡æ»¡": 8116,
      "ĠåĽ½åĬ¡": 8117,
      "Ġç¥Ń": 8118,
      "Ġåįķçĭ¬": 8119,
      "Ġwithin": 8120,
      "Ġéļľç¢į": 8121,
      "Ġé»İ": 8122,
      "Ġæĭ¿åĩº": 8123,
      "Ġè´«åĽ°": 8124,
      "Ġä¸ĢéĿ¢": 8125,
      "ĠçŁ³æ²¹": 8126,
      "Ġhttp": 8127,
      "Ġåħ¬åĽŃ": 8128,
      "ä¾Ŀ": 8129,
      "Ġå½¢æĢģ": 8130,
      "Ġå»ºæĪĲ": 8131,
      "çĩķ": 8132,
      "ĠShe": 8133,
      "Ġæ²¡æľīäºº": 8134,
      "çĸ¾": 8135,
      "ĠèĵĿèī²": 8136,
      "ĠçĽ²": 8137,
      "omp": 8138,
      "ĠéļĶå£ģ": 8139,
      "Ġåİ»ä¸ĸ": 8140,
      "Ġè¿ĩå¤ļ": 8141,
      "èĥ¡": 8142,
      "æĸ°éĹ»": 8143,
      "ĠåŃŁ": 8144,
      "åĢĭ": 8145,
      "ĠæľīåĬ©": 8146,
      "Ġstart": 8147,
      "Ġç¬Ķè®°æľ¬": 8148,
      "Ġæ²»çĲĨ": 8149,
      "Ġåİ¦éĹ¨": 8150,
      "ĠæŃ£éĿ¢": 8151,
      "ticle": 8152,
      "Ġéī´å®ļ": 8153,
      "Ġgrow": 8154,
      "Ġbusiness": 8155,
      "é¬¼": 8156,
      "Ġé¡»": 8157,
      "Ġåħ¨ä¸ĸçķĮ": 8158,
      "Ġæħķ": 8159,
      "Ġmeasures": 8160,
      "Ġè¿ľè¿ľ": 8161,
      "Ġeach": 8162,
      "Ġpolicy": 8163,
      "ĠæľīéĴ±": 8164,
      "ĠTo": 8165,
      "Ġcurrent": 8166,
      "éĺģ": 8167,
      "Ġä»Ģä¹ĪæĹ¶åĢĻ": 8168,
      "Ġç£ģ": 8169,
      "å®Ļ": 8170,
      "Ġé¤Ĳé¥®": 8171,
      "Ġå®ļåĪ¶": 8172,
      "Ġäº²æĪļ": 8173,
      "åĮĢ": 8174,
      "Ġä¸ĢæĶ¯": 8175,
      "ĠéģĵçĲĨ": 8176,
      "æĭīåħĭ": 8177,
      "ĠCP": 8178,
      "Ġè¿ĽçĲĥ": 8179,
      "Ġè¡Ģæ¶²": 8180,
      "ĠçĽĳæµĭ": 8181,
      "ĠæľīåĲį": 8182,
      "éĢĲ": 8183,
      "Ġæĵħ": 8184,
      "Ġæľīä¸Ģæ¬¡": 8185,
      "ĠæŃ¤äºĭ": 8186,
      "Ġä¹ĭä¸Ń": 8187,
      "Ġå®ŀä½ĵ": 8188,
      "Ġæ¯ģ": 8189,
      "Ġä¸§": 8190,
      "Ġredu": 8191,
      "Ġris": 8192,
      "port": 8193,
      "Ġç½¢": 8194,
      "æİ¢": 8195,
      "urop": 8196,
      "ering": 8197,
      "Ġé²į": 8198,
      "Ġåıĳå°Ħ": 8199,
      "Ġéķ¿æ²Ļ": 8200,
      "èĲĿåįľ": 8201,
      "æª¬": 8202,
      "Ġfour": 8203,
      "Ġèĩªè¡Įè½¦": 8204,
      "Ġæįķ": 8205,
      "Ġä¸Ģå¸¦": 8206,
      "Ġæ¶īå«Į": 8207,
      "Ġparty": 8208,
      "ä¹ĺ": 8209,
      "Ġå¸¦é¢Ĩ": 8210,
      "ĠéĻĮçĶŁ": 8211,
      "ĠæīĢæľīäºº": 8212,
      "è´¤": 8213,
      "Ġæīĭä¸Ń": 8214,
      "Ġå¿«é¤Ĳ": 8215,
      "Ġèīºæľ¯åĵģ": 8216,
      "æĮ¡": 8217,
      "Ġæµ·æ´ĭ": 8218,
      "éĻĦ": 8219,
      "ĺç±³": 8220,
      "Ġä¸ŃåŃ¦": 8221,
      "Ġå®¶å¸¸": 8222,
      "ĠæŁ¥çľĭ": 8223,
      "IS": 8224,
      "ĠèĭıèģĶ": 8225,
      "Ġnations": 8226,
      "ĠæķħæĦı": 8227,
      "å°±æĺ¯è¯´": 8228,
      "Ġlit": 8229,
      "Ġç²®": 8230,
      "Ġéĺ¿æĭī": 8231,
      "ĠåŁºå±Ĥ": 8232,
      "åĥ": 8233,
      "Ġç³Ĭ": 8234,
      "Ġdifferent": 8235,
      "Ġå®¢æľį": 8236,
      "ĠäºĪ": 8237,
      "Ġåºŀ": 8238,
      "Ġç«ĭåĪ»": 8239,
      "Ġparticip": 8240,
      "æĳ¸": 8241,
      "Ġå¤§èĦĳ": 8242,
      "Ġå°½å¿«": 8243,
      "orth": 8244,
      "Ġprof": 8245,
      "Ġæİ©": 8246,
      "éĨĩ": 8247,
      "Ġä¸ĢæŃ¥": 8248,
      "Ġä¼ģ": 8249,
      "Ġç»´ä¿®": 8250,
      "Ġè§Ĥçľĭ": 8251,
      "Ġä¿®å¤į": 8252,
      "Ġç§ĳçłĶ": 8253,
      "Ġè¿ŀéĶģ": 8254,
      "Ġmeeting": 8255,
      "çĨĬ": 8256,
      "Ġå®¶å±ŀ": 8257,
      "Ġèº«é«ĺ": 8258,
      "Ġä¼ĺçĤ¹": 8259,
      "Ġç´§æĢ¥": 8260,
      "Ġè§Ĥå¿µ": 8261,
      "Ġè¥¿åįĹ": 8262,
      "åĨ»": 8263,
      "ĠåĵªæĢķ": 8264,
      "ĠåŃ¦ç§ĳ": 8265,
      "å¦®": 8266,
      "Ġæ¿ĢåĬ¨": 8267,
      "éĺ´": 8268,
      "ged": 8269,
      "ĠæĥħèĬĤ": 8270,
      "é©°": 8271,
      "Ġçİ°çĬ¶": 8272,
      "è©": 8273,
      "ĠæĬ±çĿĢ": 8274,
      "Ġèĸª": 8275,
      "ivil": 8276,
      "Ġå½±è§Ĩ": 8277,
      "è§Ħæ¨¡": 8278,
      "Ġåħ¶ä½Ļ": 8279,
      "Ġä¸īæĸĩé±¼": 8280,
      "ĠTe": 8281,
      "ĠAt": 8282,
      "ĠæĳĦåĥı": 8283,
      "çĽĹ": 8284,
      "Ġæ²Ļæĭī": 8285,
      "Ġå¦¨": 8286,
      "çĵ£": 8287,
      "Ġä¸¤å¤©": 8288,
      "Ġä¸ĩç¾İåħĥ": 8289,
      "itions": 8290,
      "ĠAmeric": 8291,
      "Ġè¾ĥå¥½": 8292,
      "åĬ¨çī©": 8293,
      "Ġæ¯ķä¸ļçĶŁ": 8294,
      "Ġå¿įä¸įä½ı": 8295,
      "Ġä¿ĿåŃĺ": 8296,
      "Ġè¯ģå®ŀ": 8297,
      "Ġresources": 8298,
      "Ġåİīå®³": 8299,
      "ĠåºĹå®¶": 8300,
      "Ġplace": 8301,
      "ĠæķĪåºĶ": 8302,
      "Ġmillion": 8303,
      "Ġèĳ£äºĭéķ¿": 8304,
      "Ġsupp": 8305,
      "Ġå»¶ç»Ń": 8306,
      "è¾¨": 8307,
      "Ġé¹ħ": 8308,
      "ä¸¥": 8309,
      "mber": 8310,
      "æĪ´": 8311,
      "Ġè¯ĬæĸŃ": 8312,
      "Ġåĩ¶": 8313,
      "ĠèĤ¡ä»·": 8314,
      "é©¾": 8315,
      "Ġä¸¤åĲį": 8316,
      "ethod": 8317,
      "Ġä¸ĢèĤ¡": 8318,
      "Ġè¿İæĿ¥": 8319,
      "Ġåı«åģļ": 8320,
      "Ġå½ĵä»£": 8321,
      "çģ°": 8322,
      "Ġéħįå¥Ĺ": 8323,
      "çıį": 8324,
      "æ»ļ": 8325,
      "Ġ^": 8326,
      "ĠBe": 8327,
      "Ġbro": 8328,
      "Ġæīĭç»Ń": 8329,
      "Ġè¯ģåĪ¸": 8330,
      "ĠçłĤ": 8331,
      "Ġåĵ²åŃ¦": 8332,
      "Ġæ¸Ķ": 8333,
      "æ³Į": 8334,
      "ĠçĲĨæĢ§": 8335,
      "Ġèį·åħ°": 8336,
      "Ġä¸»ç®¡": 8337,
      "Ġåįļçī©é¦Ĩ": 8338,
      "ĠæŁł": 8339,
      "Ġè®¤å®ļ": 8340,
      "ĠåİŁçĲĨ": 8341,
      "Ġï¼İ": 8342,
      "Ġä»¿ä½Ľ": 8343,
      "ĠçĮªèĤī": 8344,
      "Ġå¦ĩå¥³": 8345,
      "Ġæ²¹èħ»": 8346,
      "çŃĴ": 8347,
      "AS": 8348,
      "Ġçļĩå¸Ŀ": 8349,
      "Ġshall": 8350,
      "Ġimportant": 8351,
      "ĠState": 8352,
      "ç§ĳåŃ¦": 8353,
      "Ġcond": 8354,
      "Ġèµ·çłģ": 8355,
      "ĠéĶħåºķ": 8356,
      "Ġgr": 8357,
      "ĠæŁĲç§į": 8358,
      "Ġè´¥": 8359,
      "éĶ¡": 8360,
      "ĠèĪ°": 8361,
      "par": 8362,
      "Ġrespect": 8363,
      "Ġä¸¾æĬ¥": 8364,
      "Ġopen": 8365,
      "Ġä¹Łå°±æĺ¯è¯´": 8366,
      "Ġprogramme": 8367,
      "Ġå½¢åĬ¿": 8368,
      "Ġä¸īç§į": 8369,
      "èİİ": 8370,
      "æ·ĩ": 8371,
      "ĠèĲĿ": 8372,
      "Ġéħ¸å¥¶": 8373,
      "Ġå°ģéĿ¢": 8374,
      "ĠåİŁæ²¹": 8375,
      "ĠéĢĴ": 8376,
      "Ġæĸ°çĶŁ": 8377,
      "ĠåŃ¦åİĨ": 8378,
      "ĠèĢ³æľº": 8379,
      "Ġè·¯è¾¹": 8380,
      "ĠåĢ¾åĲĳ": 8381,
      "Ġåī¯æĢ»": 8382,
      "Ġçºłç»ĵ": 8383,
      "ĠåīįæĻ¯": 8384,
      "åĬ£": 8385,
      "Ġæ¶¨å¹ħ": 8386,
      "Ġå¦¹å¦¹": 8387,
      "Ġæ¡Ĩ": 8388,
      "Ġstaff": 8389,
      "ton": 8390,
      "Ġæī¹åĩĨ": 8391,
      "æ²«": 8392,
      "Ġå°±è¿Ļæł·": 8393,
      "ĠåĩºåĽ½": 8394,
      "Ġä¸įæ»¡": 8395,
      "Ġå¤ĸçķĮ": 8396,
      "Ġæ²Īéĺ³": 8397,
      "ĠéĢĢä¼ĳ": 8398,
      "Ġremain": 8399,
      "æŁı": 8400,
      "æĤł": 8401,
      "Ġfun": 8402,
      "ially": 8403,
      "Ġrece": 8404,
      "Ġå®īå¾½": 8405,
      "Ġä¸Ģéĺµ": 8406,
      "Ġåļ¼": 8407,
      "Ġçłį": 8408,
      "Ġpolitical": 8409,
      "ĠåĲĮæľŁ": 8410,
      "Ġä¸ĢçĽĺ": 8411,
      "Ġæ¯ıæľĪ": 8412,
      "Ġå¾ªçİ¯": 8413,
      "Ġå°ĨæĿ¥": 8414,
      "Ġç²¾åĬĽ": 8415,
      "ç»Ĩèĥŀ": 8416,
      "Ġnet": 8417,
      "Ġæ£®æŀĹ": 8418,
      "ĠéĻ·åħ¥": 8419,
      "æ²ĥ": 8420,
      "Ġå«ģ": 8421,
      "ĠåĳĬè¯īä½ł": 8422,
      "ĠåĨ³èµĽ": 8423,
      "Ġcm": 8424,
      "Ġaccess": 8425,
      "Ġæľ¬åĳ¨": 8426,
      "Ġeng": 8427,
      "Ġé¦ĸéĥ½": 8428,
      "Ġæľªèĥ½": 8429,
      "æµĵ": 8430,
      "éĥ¡": 8431,
      "Ġrespons": 8432,
      "itional": 8433,
      "semb": 8434,
      "ĠâĢĵ": 8435,
      "esp": 8436,
      "Ġä¸¤ä¸ī": 8437,
      "ĠCE": 8438,
      "ĠåĩºåĶ®": 8439,
      "éł": 8440,
      "ilities": 8441,
      "æŀļ": 8442,
      "å¢ĵ": 8443,
      "Ġæı´": 8444,
      "Ġpay": 8445,
      "Ġinstit": 8446,
      "ĠæľīæĦıæĢĿ": 8447,
      "ĠçĪ·çĪ·": 8448,
      "Ġéĩĩè´Ń": 8449,
      "els": 8450,
      "ĠéĿ¢æĿ¡": 8451,
      "Ġåłª": 8452,
      "ä¸ĩåħĥ": 8453,
      "Ġå¸¸è§Ħ": 8454,
      "Ġä¹īåĬ¡": 8455,
      "Ġè°ĭ": 8456,
      "Ġæľ¯": 8457,
      "Ġå¼ºåº¦": 8458,
      "Ġçº¢çĥ§": 8459,
      "Ġè¢Ń": 8460,
      "Ġå±ģ": 8461,
      "ĠæĪ¿äº§": 8462,
      "Ġç¦ıåĪ©": 8463,
      "Ġrest": 8464,
      "Ġç§¯åĪĨ": 8465,
      "Ġçº¢è±Ĩ": 8466,
      "èħ¹": 8467,
      "Ġé¢ĳçİĩ": 8468,
      "Ġä¾¿åĪ©": 8469,
      "ĠåĴĭ": 8470,
      "ĠåĽ½å®¶éĺŁ": 8471,
      "åĺ¿": 8472,
      "æ¾¡": 8473,
      "Ġåı·çłģ": 8474,
      "Ġè´¢äº§": 8475,
      "Ġä¸ļä¸»": 8476,
      "Ġä¸»åĬŀ": 8477,
      "Ġç¶": 8478,
      "Ġæ¶¦": 8479,
      "ĠåĲķ": 8480,
      "Ġèµ«": 8481,
      "Ġä¸Ģç±»": 8482,
      "ĠæŀĦå»º": 8483,
      "ĠäºĮæīĭ": 8484,
      "èĥ½æºĲ": 8485,
      "Ġåĩºè¡Į": 8486,
      "Ġé«ĺæķĪ": 8487,
      "ĠçĥŃéĹ¹": 8488,
      "Ġä¸¤èĢħ": 8489,
      "ĠåĮħåŃĲ": 8490,
      "ĠæŁľ": 8491,
      "åįļçī©é¦Ĩ": 8492,
      "ĠåĬŁå¤«": 8493,
      "èĥ¸": 8494,
      "Ġè½¨éģĵ": 8495,
      "Ġann": 8496,
      "å°Ĭ": 8497,
      "Ġå¸ĮèħĬ": 8498,
      "æĦĪ": 8499,
      "ĠéĢĶå¾Ħ": 8500,
      "æ£ĭ": 8501,
      "ĠåĮħéĹ´": 8502,
      "ĠåĨįåº¦": 8503,
      "ĠæŁłæª¬": 8504,
      "çĤŃ": 8505,
      "ĠäºĶä¸ª": 8506,
      "æ®¿": 8507,
      "Ġfind": 8508,
      "Ġcase": 8509,
      "Ġç¯®çĲĥ": 8510,
      "Ġè¯¸å¤ļ": 8511,
      "åļ": 8512,
      "Ġä¾Ŀèµĸ": 8513,
      "ards": 8514,
      "Ġworking": 8515,
      "Ġå®ļæľŁ": 8516,
      "Ġæ¯ıåĳ¨": 8517,
      "æĥ§": 8518,
      "ĠçīĽä»Ķ": 8519,
      "Ġæ¸£": 8520,
      "Ġä¾ĿéĿł": 8521,
      "ĠåĸĿéħĴ": 8522,
      "èĬ¬": 8523,
      "æĬ±": 8524,
      "é¹ħ": 8525,
      "ually": 8526,
      "å£¶": 8527,
      "Ġåĵĩ": 8528,
      "ĠåĲĦé¡¹": 8529,
      "ieve": 8530,
      "Ġåĺ¿åĺ¿": 8531,
      "Ġensure": 8532,
      "Ġlocal": 8533,
      "Ġé¦Ĩ": 8534,
      "Ġå°ıä¼Ļä¼´": 8535,
      "Ġå½¼æŃ¤": 8536,
      "ajor": 8537,
      "ĠæķĻæĿĲ": 8538,
      "Ġsom": 8539,
      "the": 8540,
      "ember": 8541,
      "ĠHow": 8542,
      "Ġéĺ²å®Ī": 8543,
      "Ġè¶ħè¶Ĭ": 8544,
      "è±«": 8545,
      "Ġä¾¦": 8546,
      "ĠChina": 8547,
      "ĠéŁ¦": 8548,
      "ĠThere": 8549,
      "éĺħ": 8550,
      "ĠåĽ¾åĥı": 8551,
      "Ġå¤ļå®¶": 8552,
      "Ġå¤§è¿ŀ": 8553,
      "Ġåħ´å¥ĭ": 8554,
      "ĠåĪĨåºĹ": 8555,
      "ĠèĬ¯": 8556,
      "Ġä¸¤å®¶": 8557,
      "Ġåħ¬æ°ĳ": 8558,
      "ä¸įå¾Ĺ": 8559,
      "å½»": 8560,
      "ĠéĻĨç»Ń": 8561,
      "ĠèĤĸ": 8562,
      "Ġæ¦Ĥçİĩ": 8563,
      "Ġèİ·æĤī": 8564,
      "Ġåİ¨å¸Ī": 8565,
      "æģĴ": 8566,
      "ä¸Ģä¸ĭ": 8567,
      "äº¤æĺĵ": 8568,
      "Ġå´©": 8569,
      "ior": 8570,
      "of": 8571,
      "è£ķ": 8572,
      "ĠçĸĹ": 8573,
      "Ġè½¦ä¸»": 8574,
      "Ġåİħ": 8575,
      "Ġéļ¾å¾Ĺ": 8576,
      "Ġç´¯è®¡": 8577,
      "è¹Ī": 8578,
      "ĠæĬĳåĪ¶": 8579,
      "Ġæģ¶å¿ĥ": 8580,
      "Ġel": 8581,
      "Ġå¹´éĹ´": 8582,
      "ĠçĪ±å¥½èĢħ": 8583,
      "Ġstrate": 8584,
      "Ġæµ·åįĹ": 8585,
      "Ġè¿Ļä»¶äºĭ": 8586,
      "è·³": 8587,
      "iation": 8588,
      "Ġåı°åĮĹ": 8589,
      "Ġæľ¬æĬ¥è®¯": 8590,
      "èĸ¯": 8591,
      "ĠæĬķç¥¨": 8592,
      "ç©·": 8593,
      "éĢ¸": 8594,
      "Ġä¸ĵåĪ©": 8595,
      "Ġæīĵå·¥": 8596,
      "Ġæµĵåº¦": 8597,
      "ĠçĽĺåŃĲ": 8598,
      "ann": 8599,
      "Ġæī¯": 8600,
      "Ġvis": 8601,
      "ĠCo": 8602,
      "æŁ³": 8603,
      "IC": 8604,
      "Ġäºīåıĸ": 8605,
      "ocu": 8606,
      "çĿ¡": 8607,
      "Ġä¸ĢåľĪ": 8608,
      "æĵİ": 8609,
      "ĠæīĭéĩĮ": 8610,
      "Ġç»Ĩèħ»": 8611,
      "ĠæŃ£è§Ħ": 8612,
      "Ġçī¹å®ļ": 8613,
      "Ġçģ«ç®Ń": 8614,
      "Ġæľ´": 8615,
      "ĠçĽĳæİ§": 8616,
      "Ġåįģä¸Ģ": 8617,
      "Ġè®¤çŁ¥": 8618,
      "Ġæ¶®": 8619,
      "ĠIT": 8620,
      "èħ°": 8621,
      "Ġæģ¨": 8622,
      "ĠæĮ¡": 8623,
      "Ġå±Ģéĥ¨": 8624,
      "Ġé£ŁæĿĲ": 8625,
      "Ġçº¿ä¸Ĭ": 8626,
      "ç¿ł": 8627,
      "½æķ°": 8628,
      "Ġenvironment": 8629,
      "å¡ĳ": 8630,
      "ves": 8631,
      "ĠåĪ°æĿ¥": 8632,
      "ä¿ĥ": 8633,
      "ĠæĿĲè´¨": 8634,
      "Ġæł¼å±Ģ": 8635,
      "ĠæĬ¤çĲĨ": 8636,
      "Ġé²ľç¾İ": 8637,
      "Ġè´¯": 8638,
      "ĠæĴŃåĩº": 8639,
      "ĠæĦĪ": 8640,
      "Ġç»§æī¿": 8641,
      "Ġareas": 8642,
      "Ġåľºåľ°": 8643,
      "èĪĮ": 8644,
      "ĠåĽ¢ä½ĵ": 8645,
      "Ġhere": 8646,
      "Ġaddress": 8647,
      "Ġä¸įå¿ħ": 8648,
      "ĠÑı": 8649,
      "ĠåĲĲæ§½": 8650,
      "Ġland": 8651,
      "Ġæ¡£æ¬¡": 8652,
      "¤åŃĲ": 8653,
      "æĢľ": 8654,
      "Ġä¸ĭæ»ĳ": 8655,
      "ĠæĩĤå¾Ĺ": 8656,
      "çĨĻ": 8657,
      "Ġä¼Ļä¼´": 8658,
      "é¢Ī": 8659,
      "ĠæľīéĹ®é¢ĺ": 8660,
      "æ¯Ķäºļ": 8661,
      "Ġå®ĩå®Ļ": 8662,
      "ĠçĶµæ¢¯": 8663,
      "ird": 8664,
      "Ġwithout": 8665,
      "Ġé¹¿": 8666,
      "ĠåŃĲå¥³": 8667,
      "Ġå®ĺç½ĳ": 8668,
      "Ġç¥ŀå¥ĩ": 8669,
      "é¢Ħ": 8670,
      "Ġæµ·æĭĶ": 8671,
      "Ġåı¯éĿł": 8672,
      "çĩĥ": 8673,
      "Ġå¤§äºº": 8674,
      "Ġrequest": 8675,
      "ĠæĮ¥": 8676,
      "Ġæ°Ķæ¸©": 8677,
      "Ġå°ıèıľ": 8678,
      "Ġsk": 8679,
      "Ġproduct": 8680,
      "Ġsect": 8681,
      "itor": 8682,
      "çº²": 8683,
      "ĠåİķæīĢ": 8684,
      "Ġéª¨å¤´": 8685,
      "çĽ¸ä¿¡": 8686,
      "Ġæµĭéĩı": 8687,
      "PS": 8688,
      "ĠèĻļæĭŁ": 8689,
      "Ġåħįçĸ«": 8690,
      "ĠæĬķè¯ī": 8691,
      "erc": 8692,
      "Ġissues": 8693,
      "Ġè®¤åĲĮ": 8694,
      "Ġéĩįéĩı": 8695,
      "Ġput": 8696,
      "ĠéĿŀæ´²": 8697,
      "Ġcommittee": 8698,
      "Ġç§ĳåŃ¦å®¶": 8699,
      "Ġé¸¡ç¿ħ": 8700,
      "ĠèĦ¾": 8701,
      "Ġæ¸Ĳæ¸Ĳ": 8702,
      "ĠçĥŃçĪ±": 8703,
      "Ġç¤¼çī©": 8704,
      "ĠèıĮ": 8705,
      "ĠçĪ²": 8706,
      "Ġçľĭä¹¦": 8707,
      "Ġå¾Īç®Ģåįķ": 8708,
      "Ġä¸İåħ¶": 8709,
      "Ġpat": 8710,
      "çĳ°": 8711,
      "Ġâĳ": 8712,
      "Ġå¾¡": 8713,
      "Ġæ¶¨ä»·": 8714,
      "ĠåĲĪå¹¶": 8715,
      "ĠéĢĽè¡Ĺ": 8716,
      "æĹº": 8717,
      "Ġåħ±äº«": 8718,
      "ator": 8719,
      "ĠæĢ§æĦŁ": 8720,
      "MA": 8721,
      "Ġèº«ä»½è¯ģ": 8722,
      "éª¤": 8723,
      "ĠæĻ¯çĤ¹": 8724,
      "Ġefforts": 8725,
      "Ġservice": 8726,
      "Ġä¸įæŃ¢": 8727,
      "åįł": 8728,
      "ĠåĨĻä½ľ": 8729,
      "Ġå¤§èĩ´": 8730,
      "æ°§åĮĸ": 8731,
      "ĠçŃīäºİ": 8732,
      "Ġæľīä¸Ģå¤©": 8733,
      "ĠæľīæľĽ": 8734,
      "Ġæ¾³éĹ¨": 8735,
      "Ġåı¯è°ĵ": 8736,
      "Ġreal": 8737,
      "ĠAPP": 8738,
      "èĪŁ": 8739,
      "ĠæľŁæľĽ": 8740,
      "å£®": 8741,
      "éľŀ": 8742,
      "Ġçģ¯åħī": 8743,
      "Ġç§ĺå¯Ĩ": 8744,
      "é©»": 8745,
      "Ġåħ¥éĹ¨": 8746,
      "ĠæĹ¥æľŁ": 8747,
      "ĠæľįçĶ¨": 8748,
      "å¿Į": 8749,
      "ä½ĵèĤ²": 8750,
      "éĵģè·¯": 8751,
      "ĠèĤ¡ä»½": 8752,
      "Ġæ¸©é¦¨": 8753,
      "Ġä¹Łå¥½": 8754,
      "Ġrese": 8755,
      "Ġè³": 8756,
      "ĠåľºæīĢ": 8757,
      "Ġä»İæŃ¤": 8758,
      "reed": 8759,
      "ĠçĤİ": 8760,
      "Ġåįłæį®": 8761,
      "ĳèıĩ": 8762,
      "å³¡": 8763,
      "åįĵ": 8764,
      "Ġä¸Ģåı°": 8765,
      "ĠæŃ¤åĲİ": 8766,
      "Ġcontrib": 8767,
      "Ġé¢ĺæĿĲ": 8768,
      "æĸ¹ç±³": 8769,
      "ä¸ĸçºª": 8770,
      "èĥĸ": 8771,
      "ĠçĻ½å¤©": 8772,
      "ify": 8773,
      "ically": 8774,
      "¿è½¦": 8775,
      "Ġå¹³æĸ¹ç±³": 8776,
      "æľºåľº": 8777,
      "iving": 8778,
      "Ġè¡Įé©¶": 8779,
      "æĪĺäºī": 8780,
      "ĠåĽ¾ä¹¦é¦Ĩ": 8781,
      "æİ¨": 8782,
      "ĠèĪĨ": 8783,
      "åį«çĶŁ": 8784,
      "ĠåĪ®": 8785,
      "Ġmar": 8786,
      "Ġè¿ĩåĲİ": 8787,
      "Ġèĺ¸": 8788,
      "Ġèµı": 8789,
      "line": 8790,
      "ĠäºĭåĬ¡": 8791,
      "Ġç»Łæ²»": 8792,
      "Ġæ¬§ç¾İ": 8793,
      "è°Ĭ": 8794,
      "ister": 8795,
      "Ġé¥°æ¼Ķ": 8796,
      "ĠThey": 8797,
      "Ġå£³": 8798,
      "æ¤İ": 8799,
      "ĠåĶĩ": 8800,
      "Ġrun": 8801,
      "Ġçľĭå¥½": 8802,
      "ä¸ĵä¸ļ": 8803,
      "Ġè£Ĥ": 8804,
      "é¦Ī": 8805,
      "ĠåĽĽå¤§": 8806,
      "è¾ŀ": 8807,
      "Ġçľĭå¾ħ": 8808,
      "reng": 8809,
      "Ġæīĵåį°": 8810,
      "Ġå¤§ç¥ŀ": 8811,
      "åĶĲ": 8812,
      "ert": 8813,
      "å§ĳå¨ĺ": 8814,
      "Ġstat": 8815,
      "Ġè¯´ä¸į": 8816,
      "Ġåģ¶åĥı": 8817,
      "Ġéħįå¤ĩ": 8818,
      "Ġæ¸ħåįİ": 8819,
      "Ġåĳ½è¿Ĳ": 8820,
      "ĠæľīåĬ©äºİ": 8821,
      "ĠèģĶæĥ³": 8822,
      "Ġä¸ºæŃ¢": 8823,
      "ĠæĹ¶åħī": 8824,
      "Ġç²¾åĵģ": 8825,
      "Ġpower": 8826,
      "Ġæļ´åĬĽ": 8827,
      "Ġå¹³å¸¸": 8828,
      "æī®": 8829,
      "ĠæĢ»ç»ıçĲĨ": 8830,
      "Ġamong": 8831,
      "ĠåŁİéķĩ": 8832,
      "çªĿ": 8833,
      "Ġcult": 8834,
      "Ġæ¯ıäºº": 8835,
      "Ġäº¬ä¸ľ": 8836,
      "Ġè¾ħåĬ©": 8837,
      "ĠInd": 8838,
      "ĠæĬĵä½ı": 8839,
      "ĠæĦī": 8840,
      "çĹķ": 8841,
      "ĠæľīäºĽäºº": 8842,
      "Ġç»ĳ": 8843,
      "ĠåĩłçĻ¾": 8844,
      "Ġsmall": 8845,
      "Ġinterest": 8846,
      "èĻ¹": 8847,
      "Ĳå°Ħ": 8848,
      "Ġè£¸": 8849,
      "Ġæ°Ķæģ¯": 8850,
      "ĠåĲĮå¿Ĺ": 8851,
      "·åŃĲ": 8852,
      "Ġä¸Ģä¼ļåĦ¿": 8853,
      "Ġä¸Ģå£°": 8854,
      "å¼Ĺ": 8855,
      "Ġå¹¼åĦ¿åĽŃ": 8856,
      "Ġåħ¨çľģ": 8857,
      "ĠèĢ¶": 8858,
      "Ġtest": 8859,
      "å¯»": 8860,
      "Ġäººäºº": 8861,
      "Ġperform": 8862,
      "Ġä¼ĬæľĹ": 8863,
      "ĠPh": 8864,
      "iversity": 8865,
      "Ġwar": 8866,
      "è¿ĲåĬ¨": 8867,
      "Ġç¾İæľ¯": 8868,
      "ĠéĢļä¿¡": 8869,
      "imate": 8870,
      "Ġprovided": 8871,
      "ption": 8872,
      "ĠçĪ¸å¦Ī": 8873,
      "ĠåĬłæ²¹": 8874,
      "ĠCO": 8875,
      "Ġæľĭåıĭä»¬": 8876,
      "Ġæīĭå·¥": 8877,
      "Ġäº®çĤ¹": 8878,
      "Ġemploy": 8879,
      "ĠåĮ¹": 8880,
      "ĠéĿłè¿ĳ": 8881,
      "Ġè¾ĥå¤ļ": 8882,
      "æĿĲæĸĻ": 8883,
      "Ġå¢ĥåĨħ": 8884,
      "Ġç¬¬åįģ": 8885,
      "ĠåºĦ": 8886,
      "Ġä¸įèĪĴæľį": 8887,
      "ĠæĻ®åıĬ": 8888,
      "ĠäºĮäºº": 8889,
      "Ġå¥³ç¥ŀ": 8890,
      "ĠæĻļé¥Ń": 8891,
      "Ġèµ¶åĪ°": 8892,
      "Ġé¤Ĳé¦Ĩ": 8893,
      "Ġteam": 8894,
      "«çĳ°": 8895,
      "Ġçľĭä¸į": 8896,
      "éĽ¾": 8897,
      "Ġhome": 8898,
      "Ġå»ī": 8899,
      "Ġå°ıåŀĭ": 8900,
      "ĠæĹłæīĢ": 8901,
      "æĭ³": 8902,
      "Ġæĸ°åŀĭ": 8903,
      "ĠçĥŃçĤ¹": 8904,
      "ĠéĺŁåıĭ": 8905,
      "Ġæ¤°": 8906,
      "ĠåĨįè¯´": 8907,
      "æĪĴ": 8908,
      "ode": 8909,
      "Ġå©´åĦ¿": 8910,
      "Ġinit": 8911,
      "ox": 8912,
      "Ġquest": 8913,
      "Ġæĳ©æīĺ": 8914,
      "ĠæĢ»çĲĨ": 8915,
      "ope": 8916,
      "Ġpass": 8917,
      "éħª": 8918,
      "æ°ĳæĹı": 8919,
      "Ġæ¸ħçĲĨ": 8920,
      "æĢİ": 8921,
      "Ġä¸įä½ı": 8922,
      "Ġå¸¦åĬ¨": 8923,
      "por": 8924,
      "AC": 8925,
      "sembly": 8926,
      "Ġæ±Łè¥¿": 8927,
      "Ġé¡¶çº§": 8928,
      "Ġéĥ¨ç½²": 8929,
      "Ġåĩłç§į": 8930,
      "Ġæ°´åĩĨ": 8931,
      "Ġéļıæľº": 8932,
      "ĠèģĮå·¥": 8933,
      "ĠæľŁè´§": 8934,
      "Ġåºı": 8935,
      "Ġæ£Ģå¯Ł": 8936,
      "Ġè¿Ĳä½ľ": 8937,
      "æ¼Ĥäº®": 8938,
      "ĠéĢĢåĩº": 8939,
      "ĠæŃ¥éª¤": 8940,
      "å¾¡": 8941,
      "ĠåĽ½æľī": 8942,
      "ĠåįĹçĵľ": 8943,
      "ĠæĽ´æį¢": 8944,
      "Ġç¢§": 8945,
      "Ġè¿ĶåĽŀ": 8946,
      "Ġthough": 8947,
      "Ġæ¿": 8948,
      "mes": 8949,
      "Ġæ±ģ": 8950,
      "Ġä»İæľª": 8951,
      "Ġè¸©": 8952,
      "ĠåĶī": 8953,
      "Ġè½¬åĮĸ": 8954,
      "ĠåıĤèµĽ": 8955,
      "Ġè´Łæĭħ": 8956,
      "ĠåİĤå®¶": 8957,
      "ĠéļĨ": 8958,
      "Ġå¤§è§Ħæ¨¡": 8959,
      "Ġtraining": 8960,
      "Ġæ¸Ĺ": 8961,
      "Ġäº§éĩı": 8962,
      "Ġéķ¿åº¦": 8963,
      "Ġæĸ°åĵģ": 8964,
      "Ġfamily": 8965,
      "Ġè¿Ļä»½": 8966,
      "ĠéĻ¢æł¡": 8967,
      "åŁĥ": 8968,
      "ibility": 8969,
      "Ġæ£ĭ": 8970,
      "ĠèĪĩ": 8971,
      "ĠOff": 8972,
      "Ġæ±½": 8973,
      "Ġeffective": 8974,
      "Ġè©¹": 8975,
      "Ġä¸Ģé¦ĸ": 8976,
      "ĠåİŁå§ĭ": 8977,
      "æıı": 8978,
      "Ġæľ¬åľŁ": 8979,
      "Ġè½°": 8980,
      "æİª": 8981,
      "Ġæŀģåħ¶": 8982,
      "Ġmajor": 8983,
      "Ġä¸»æĮģäºº": 8984,
      "ç½Ĳ": 8985,
      "Ġmet": 8986,
      "iety": 8987,
      "Ġtop": 8988,
      "åģ¥åº·": 8989,
      "Ġlow": 8990,
      "Ġæīĭæ³ķ": 8991,
      "å¹¼": 8992,
      "Ġsays": 8993,
      "Ġå¿½çķ¥": 8994,
      "Ġæĸ°äºº": 8995,
      "ĠåįĪé¤Ĳ": 8996,
      "less": 8997,
      "atch": 8998,
      "ĠæĶĢ": 8999,
      "ĠçĻĮ": 9000,
      "Ġæ°´çħ®": 9001,
      "Ġmethod": 9002,
      "Ġåıĳèµ·": 9003,
      "ets": 9004,
      "ĠéĽ¾": 9005,
      "ç°": 9006,
      "ĠèģĮä½į": 9007,
      "ĠHong": 9008,
      "è®¼": 9009,
      "ger": 9010,
      "Ġarea": 9011,
      "é¼ĵ": 9012,
      "Ġgra": 9013,
      "Ġç³Ł": 9014,
      "æī«": 9015,
      "Ġé¢¨": 9016,
      "ĠèĲ§": 9017,
      "Ġå¼ķåħ¥": 9018,
      "Ġè®°è½½": 9019,
      "Ġæµı": 9020,
      "Ġå½¢çĬ¶": 9021,
      "ĠæıĲéĹ®": 9022,
      "ĠéħĴåĲ§": 9023,
      "Ġrequire": 9024,
      "ĠåĲĦåĽ½": 9025,
      "ä¸Ńå¤®": 9026,
      "ĠÑĭ": 9027,
      "åģ¶": 9028,
      "è¯ŀ": 9029,
      "Ġå¯¸": 9030,
      "Ġçº¹": 9031,
      "Ġåĩºåĵģ": 9032,
      "åķ¦": 9033,
      "ĠçĶ·åŃ©": 9034,
      "Ġæī®æ¼Ķ": 9035,
      "Ġè´µå·ŀ": 9036,
      "å··": 9037,
      "ĠçĻ": 9038,
      "ĠåĪĽå§ĭ": 9039,
      "ĠèĲ½åĲİ": 9040,
      "ĠçĿ£": 9041,
      "ĠåĽ½åĬ¡éĻ¢": 9042,
      "Ġä¼łéĢĴ": 9043,
      "Ġindust": 9044,
      "oot": 9045,
      "Ġè¯ŀ": 9046,
      "ĠæĢ»éĥ¨": 9047,
      "Ġæĥħä¾£": 9048,
      "Ġä¸įåĪ©": 9049,
      "ĠæģĲæĢķ": 9050,
      "Ġå¸¸çĶ¨": 9051,
      "Ġä¼ĺæĥłåĪ¸": 9052,
      "Ġå¸ĥç½®": 9053,
      "å¤ķ": 9054,
      "Ġrelated": 9055,
      "å¤§éģĵ": 9056,
      "Ġè°ĥæĸĻ": 9057,
      "Ġä½ľæĪĺ": 9058,
      "ĠåĪĿæľŁ": 9059,
      "éĨī": 9060,
      "Ġæī¿åıĹ": 9061,
      "Ġåį±å®³": 9062,
      "indows": 9063,
      "aim": 9064,
      "Ġæ£ĢéªĮ": 9065,
      "Ġé©±åĬ¨": 9066,
      "Ġcivil": 9067,
      "Ġä½ĵåĨħ": 9068,
      "Ġdocu": 9069,
      "å¸ĸ": 9070,
      "è¿Ķ": 9071,
      "Ġèĭį": 9072,
      "Ġæł¡éķ¿": 9073,
      "Ġè½¬æį¢": 9074,
      "ä¸¤å¤©": 9075,
      "Ġè¿ĩæķı": 9076,
      "åıĪ": 9077,
      "Ġä¸įåĬ¨": 9078,
      "Ġåĩłå®¶": 9079,
      "Ġç¤ºèĮĥ": 9080,
      "Ġå±¥": 9081,
      "ĠéĿ¢åĲĳ": 9082,
      "Ġä¸ĵé¡¹": 9083,
      "Ġå¤ıåŃ£": 9084,
      "ĠæłĩçŃ¾": 9085,
      "Ġä¸Ģæł¹": 9086,
      "Ġä¸ĬåįĬå¹´": 9087,
      "æķħäºĭ": 9088,
      "Ġdiscuss": 9089,
      "ä¿ĿæĬ¤": 9090,
      "Ġåĩłä¸ªæľĪ": 9091,
      "ĠæĿĥå¨ģ": 9092,
      "ĠåĲĮå¹´": 9093,
      "èĿ¶": 9094,
      "ĠæĮĳéĢī": 9095,
      "Ġæĸĳ": 9096,
      "Ġå¦ĤåĲĮ": 9097,
      "ror": 9098,
      "ĠçŃ¾è®¢": 9099,
      "Ġregional": 9100,
      "Ġåĩºäºİ": 9101,
      "irl": 9102,
      "çĶ³": 9103,
      "ĠæµİåįĹ": 9104,
      "Ġå¾Īæĸ¹ä¾¿": 9105,
      "Ġgreat": 9106,
      "Ġæīĵçł´": 9107,
      "å¹²åĩĢ": 9108,
      "Ġä¸Ģçº§": 9109,
      "ĠOK": 9110,
      "ĠIS": 9111,
      "Ġåĩºèº«": 9112,
      "ĠåĽłèĢĮ": 9113,
      "Ġå½ĵä¸ĭ": 9114,
      "æĬ¼": 9115,
      "Ġåħ³éĹŃ": 9116,
      "Ġäº¤èŃ¦": 9117,
      "Ġçĭ®": 9118,
      "ried": 9119,
      "ĠæīĭæĮĩ": 9120,
      "Ġstudy": 9121,
      "ĠæľºåĻ¨äºº": 9122,
      "Ġglobal": 9123,
      "Ġåħ¨ç¨ĭ": 9124,
      "åķĨåĬ¡": 9125,
      "Ġåĩīèıľ": 9126,
      "Ġèģªæĺİ": 9127,
      "ĠST": 9128,
      "Ġæ¸ħçĪ½": 9129,
      "ĠFr": 9130,
      "Ġèĥĥåı£": 9131,
      "Ġäº®çĽ¸": 9132,
      "Ġçĭł": 9133,
      "Ġå¯Ĩçłģ": 9134,
      "ĠæıĲåıĸ": 9135,
      "Ġæ¶ĪéĻ¤": 9136,
      "å®½": 9137,
      "ĠèļĬ": 9138,
      "Ġå£ģ": 9139,
      "go": 9140,
      "ĠåĪĨç¦»": 9141,
      "Ġåħ¶ä»ĸäºº": 9142,
      "éĿ¢ç§¯": 9143,
      "Ġå¤ļæł·": 9144,
      "Ġçİ©åħ·": 9145,
      "ances": 9146,
      "Ġéħ¸èıľ": 9147,
      "ĠçĶµä¿¡": 9148,
      "é¼İ": 9149,
      "Ġaround": 9150,
      "æ·Ģ": 9151,
      "ĠéĿĴå°ĳå¹´": 9152,
      "Ġè®²è§£": 9153,
      "ĦĴ": 9154,
      "èĪªç©º": 9155,
      "vant": 9156,
      "æ¼ł": 9157,
      "Ġæ¸´": 9158,
      "æĳĬ": 9159,
      "éħ¬": 9160,
      "NA": 9161,
      "Ġä¸Ńèį¯": 9162,
      "æ¡ĳ": 9163,
      "ĠæĬ«éľ²": 9164,
      "Ġæ¶ĪèĢĹ": 9165,
      "Ġå±Ī": 9166,
      "ĠåĨħåŃĺ": 9167,
      "Ġå´Ķ": 9168,
      "Ġä¾¿æĺ¯": 9169,
      "å®£": 9170,
      "Ġstreng": 9171,
      "Ġè¢«åĳĬ": 9172,
      "è¡·": 9173,
      "Ġå¤įä¹ł": 9174,
      "ames": 9175,
      "Ġä¸¤åĽ½": 9176,
      "Ġå¤Ħç½ļ": 9177,
      "Ġå¤§éĹ¨": 9178,
      "Ġç§ĺä¹¦": 9179,
      "Ġä¸»åľº": 9180,
      "Ġä»²": 9181,
      "ç«ŀ": 9182,
      "èģĶçĽŁ": 9183,
      "ĠèĢĮæĿ¥": 9184,
      "Ġåħ¬å¹³": 9185,
      "Ġä¸Ńå±±": 9186,
      "çłĸ": 9187,
      "Ġåĩºç§Łè½¦": 9188,
      "Ġåı¯æĢľ": 9189,
      "ĠåįĹéĥ¨": 9190,
      "Ġçľ¼åīį": 9191,
      "aper": 9192,
      "ĠçŃīçº§": 9193,
      "ĠæĲºå¸¦": 9194,
      "Ġvar": 9195,
      "Ġident": 9196,
      "Ġaction": 9197,
      "Ġæµĩ": 9198,
      "åĮ¹": 9199,
      "Ġåİĺç±³": 9200,
      "akes": 9201,
      "Ġæĸ°å¢ŀ": 9202,
      "ĠåŃ¦éĻ¢": 9203,
      "å¸½": 9204,
      "ĠåĶ±æŃĮ": 9205,
      "æĹģ": 9206,
      "Ġå¾Ĺåĩº": 9207,
      "stand": 9208,
      "Ġæ¼ĶåĶ±ä¼ļ": 9209,
      "Ġé¢ĳç¹ģ": 9210,
      "ĠæĮĩå®ļ": 9211,
      "Ġä¿Ŀåħ»": 9212,
      "ĠéĹ¨ç¥¨": 9213,
      "Ġach": 9214,
      "ĠçİĦ": 9215,
      "ĠéĻ¤éĿŀ": 9216,
      "Ġexpl": 9217,
      "ĠçĻ»éĻĨ": 9218,
      "Ġè¤": 9219,
      "æ³Ĭ": 9220,
      "Ġtyp": 9221,
      "ä¾Ī": 9222,
      "Ġé£İåĳ³": 9223,
      "å§¿": 9224,
      "æĸĮ": 9225,
      "ĠåĻ¶": 9226,
      "Ġpolice": 9227,
      "æĺĤ": 9228,
      "ĠåıĳæĶ¾": 9229,
      "åĲĲ": 9230,
      "ĠæĦ¤": 9231,
      "Ġcooperation": 9232,
      "ĠæĦıè¯ĨåĪ°": 9233,
      "Ġè£ħç½®": 9234,
      "æ·»": 9235,
      "Ġèģļé¤Ĳ": 9236,
      "Ġåģĩè®¾": 9237,
      "Ġocc": 9238,
      "ivid": 9239,
      "ials": 9240,
      "Ġæ¬¡æķ°": 9241,
      "ification": 9242,
      "ä½ľçĶ¨": 9243,
      "Ġè¨": 9244,
      "èĩªçĦ¶": 9245,
      "Ġæ¶Į": 9246,
      "Ġä¸»æķĻ": 9247,
      "Ġæ³¢åĬ¨": 9248,
      "Ġè°ĪåĪ¤": 9249,
      "ĠçĶ¨å¿ĥ": 9250,
      "ĠæĬ«èĲ¨": 9251,
      "æĻºèĥ½": 9252,
      "Ġå¤§äºİ": 9253,
      "éĩĳèŀį": 9254,
      "ender": 9255,
      "ĠLG": 9256,
      "Ġsol": 9257,
      "Ġç¼ºå°ĳ": 9258,
      "ĠéĨĭ": 9259,
      "ĠæĹħå®¢": 9260,
      "Ġå¥ĸåĬ±": 9261,
      "ç»ĺ": 9262,
      "ĠåĬŁæķĪ": 9263,
      "ĠPart": 9264,
      "riend": 9265,
      "ĠéĵģæĿ¿": 9266,
      "Ġä¸Ńåħ±": 9267,
      "Ġur": 9268,
      "Ġé«ĺå±Ĥ": 9269,
      "ĠMin": 9270,
      "Ġè®¤è¯ģ": 9271,
      "Ġæ³ķè§Ħ": 9272,
      "ĠèĪĨè®º": 9273,
      "Ġä»¥æŃ¤": 9274,
      "è·Ł": 9275,
      "æĮĩæķ°": 9276,
      "ĠçĹħæ¯Ĵ": 9277,
      "ĠåĽ½çİĭ": 9278,
      "Ġè§Ĩä¸º": 9279,
      "ĠéĹº": 9280,
      "Ġæ¡Ĩæŀ¶": 9281,
      "Ġå¼ºåĬ¿": 9282,
      "Ġå¥¢ä¾Ī": 9283,
      "Ġå·¥åķĨ": 9284,
      "Ġä¸įæĦ¿": 9285,
      "ĠèĭĹ": 9286,
      "Ġè¿Ľå±ķ": 9287,
      "Ġcommunity": 9288,
      "Ġcapac": 9289,
      "incip": 9290,
      "åħĭåħ°": 9291,
      "Ġæİı": 9292,
      "ĠåįıåĬ©": 9293,
      "Ġè¾½å®ģ": 9294,
      "ex": 9295,
      "åĭŁ": 9296,
      "Ġgre": 9297,
      "Ġè¿ĩå¹´": 9298,
      "ä¸Ģä»£": 9299,
      "Ġè®¾æľī": 9300,
      "ĠCD": 9301,
      "Ġfil": 9302,
      "Ġæĺı": 9303,
      "used": 9304,
      "Ġæİ¥å¾ħ": 9305,
      "Ġproper": 9306,
      "Ġå¾Ĵ": 9307,
      "ĠèĤ²": 9308,
      "Ġé»Ħèī²": 9309,
      "Ġgoing": 9310,
      "æģ¼": 9311,
      "Ġä¸Ģçľ¼": 9312,
      "ners": 9313,
      "ĠåĲ¦è®¤": 9314,
      "Ġè®¨åİĮ": 9315,
      "Ġä¸Ĭçº¿": 9316,
      "å·¥ä¸ļ": 9317,
      "Ġä¸Ģèº«": 9318,
      "ĠæľįåĬ¡çĶŁ": 9319,
      "ĠæİĴéª¨": 9320,
      "Ġtoo": 9321,
      "Ġä¸ĵæ³¨": 9322,
      "Ġestablish": 9323,
      "Ġåĵģå°Ŀ": 9324,
      "Ġlegal": 9325,
      "Ġå·®çĤ¹": 9326,
      "ĠæĬ¤èĤ¤": 9327,
      "Ġæ¼Ķè®²": 9328,
      "ĠåĿĩåĮĢ": 9329,
      "ĠSU": 9330,
      "ĠæĢ»ä¼ļ": 9331,
      "Ġå¹³å®ī": 9332,
      "Ġæ³ª": 9333,
      "éĨĭ": 9334,
      "è®¾è®¡": 9335,
      "Ġinvol": 9336,
      "ĠåĽ¾æ¡Ī": 9337,
      "èīºæľ¯": 9338,
      "ĠæĬļ": 9339,
      "Ġcalled": 9340,
      "Ġè£Ļ": 9341,
      "ĠåĲĪæĪĲ": 9342,
      "Ġä¸įåŃĺ": 9343,
      "ĠSo": 9344,
      "ĠåĮħæĪ¿": 9345,
      "yn": 9346,
      "app": 9347,
      "ertain": 9348,
      "Ġå»ºéĢł": 9349,
      "Ġæķĳæı´": 9350,
      "ĠçĽ¸åıį": 9351,
      "ĠåĲĮæŃ¥": 9352,
      "Ġå¹ħåº¦": 9353,
      "Ġåįµ": 9354,
      "Ġç§įåŃĲ": 9355,
      "ĠKong": 9356,
      "ĠèµĦè®¯": 9357,
      "ĠèĬ±è´¹": 9358,
      "Ġfree": 9359,
      "ĠåĲ¾": 9360,
      "Ġåŀ«": 9361,
      "Ġæīĩ": 9362,
      "çħĮ": 9363,
      "ĠçĥŃéĹ¨": 9364,
      "æ®ĭ": 9365,
      "Ġä¼ĺåħĪ": 9366,
      "Ġäºĭçī©": 9367,
      "Ġçº¯ç²¹": 9368,
      "Ġåīįåĩłå¤©": 9369,
      "chan": 9370,
      "Ġå¨ĥ": 9371,
      "Ġå¹¿è¥¿": 9372,
      "Ġèŀįåħ¥": 9373,
      "ĠèĬĿéº»": 9374,
      "åĩºçİ°": 9375,
      "Ġè½´": 9376,
      "ĠçŃĸåĪĴ": 9377,
      "Ġlist": 9378,
      "BC": 9379,
      "Ġwin": 9380,
      "ĠæĮºä¸įéĶĻ": 9381,
      "Ġç²Ĵ": 9382,
      "Ġåĩºåľº": 9383,
      "Ġå½ĵæĹ¥": 9384,
      "Ġagree": 9385,
      "å¦Īå¦Ī": 9386,
      "Ġä¸ĢéĹ´": 9387,
      "rim": 9388,
      "ĠèĬ±éĴ±": 9389,
      "éĽķ": 9390,
      "ĠMar": 9391,
      "Ġå¾Ĺä»¥": 9392,
      "æ²ī": 9393,
      "å®īåħ¨": 9394,
      "artment": 9395,
      "Ġä¸»æīĵ": 9396,
      "orn": 9397,
      "ĠåīįæĿ¥": 9398,
      "Ġè¿Ŀè§Ħ": 9399,
      "Ġæµĳ": 9400,
      "ĠèĩªæĿĢ": 9401,
      "ĠAC": 9402,
      "Ġè¡¡": 9403,
      "Ġè½¿è½¦": 9404,
      "ĠæĶ¹ä¸º": 9405,
      "TV": 9406,
      "é¼»": 9407,
      "Ġèį¯åĵģ": 9408,
      "Ġä¹ı": 9409,
      "Ġå¼¹æĢ§": 9410,
      "Ġheld": 9411,
      "Ġé±¼å¤´": 9412,
      "ĠçĶŁæ°Ķ": 9413,
      "Ġçĭ¼": 9414,
      "ĠäºĮæ¬¡": 9415,
      "Ġæį§": 9416,
      "Ġè¿ĲèĲ¥åķĨ": 9417,
      "Ġçĥ¤é¸Ń": 9418,
      "ison": 9419,
      "Ġåıī": 9420,
      "Ġanother": 9421,
      "Ġenc": 9422,
      "Ġçı": 9423,
      "Ġå¦Ĩ": 9424,
      "Ġä¸ľéĥ¨": 9425,
      "Ġå¯¹æĬĹ": 9426,
      "Ġé¦ĸå¸Ń": 9427,
      "Ġéľĩèį¡": 9428,
      "æĮĤ": 9429,
      "ĠæĿı": 9430,
      "æ±°": 9431,
      "Ġéĥĳå·ŀ": 9432,
      "Ġchange": 9433,
      "åłª": 9434,
      "æĻĴ": 9435,
      "ĠæĶ¾åħ¥": 9436,
      "èķ¾": 9437,
      "Ġgot": 9438,
      "æ¬£": 9439,
      "Ġä¸İæŃ¤": 9440,
      "for": 9441,
      "Ġå·´èĲ¨": 9442,
      "ĠçĮİ": 9443,
      "ç´«": 9444,
      "Ġsl": 9445,
      "Ġtaken": 9446,
      "åº¸": 9447,
      "ĠèĪĮ": 9448,
      "Ġcontinu": 9449,
      "Ġå¼ĢåıĳåķĨ": 9450,
      "ĠæĢ»çļĦ": 9451,
      "Ġè¾¹ä¸Ĭ": 9452,
      "Ġå¯»æ±Ĥ": 9453,
      "Ġæĭ³": 9454,
      "Ġäºĭé¡¹": 9455,
      "ä¸ĢçĤ¹": 9456,
      "Ġorganizations": 9457,
      "©åºı": 9458,
      "Ġlet": 9459,
      "Ġfield": 9460,
      "Ġexpress": 9461,
      "ĠåĲŀ": 9462,
      "Ġçī¢": 9463,
      "Ġçĵ·": 9464,
      "Ġä¿ĥéĶĢ": 9465,
      "Ġè¿Ļåı¥è¯Ŀ": 9466,
      "ID": 9467,
      "ĠäºıæįŁ": 9468,
      "çĳŁ": 9469,
      "Ġæ¼Ĥ": 9470,
      "æĻļä¸Ĭ": 9471,
      "Ġbest": 9472,
      "éŁ©": 9473,
      "Ġä¸Ģæĸ¹": 9474,
      "ĠæĹłèģĬ": 9475,
      "Ġä¼¼çļĦ": 9476,
      "Ġä¸¤å¤§": 9477,
      "Ġå¾ħéģĩ": 9478,
      "å¤§éĻĨ": 9479,
      "lection": 9480,
      "åĭĥ": 9481,
      "Ġåıĸä»£": 9482,
      "Ġç§įç§į": 9483,
      "ä¸ªæľĪ": 9484,
      "åŀ«": 9485,
      "Ġdecision": 9486,
      "Ġæ¢³": 9487,
      "ĠçĶŁçĲĨ": 9488,
      "Ġå¥¥è¿Ĳä¼ļ": 9489,
      "çĶ¸": 9490,
      "éļĲ": 9491,
      "Ġå¤§å¥ĸ": 9492,
      "Ġçģ«çĪĨ": 9493,
      "Ġåħ¬è·¯": 9494,
      "Ġè°¨": 9495,
      "ĠåĲĥé¥±": 9496,
      "Ġè¯ķçĤ¹": 9497,
      "ĠçªĹåı£": 9498,
      "Ġread": 9499,
      "Ġbig": 9500,
      "Ġå¤®è§Ĩ": 9501,
      "ĠåĮĹéĥ¨": 9502,
      "Ġä¸¤ä¸ªæľĪ": 9503,
      "Ġæ¥ļ": 9504,
      "Ġå®´": 9505,
      "Ġåī¥": 9506,
      "Ġä¸ªä½ĵ": 9507,
      "ĠæıĲäº¤": 9508,
      "ĠåĻª": 9509,
      "Ġåħ¬äº¤è½¦": 9510,
      "isions": 9511,
      "Ġä¿º": 9512,
      "Ġæ¯ķä¸ļåĲİ": 9513,
      "Ġæµıè§Ī": 9514,
      "èĢ¶": 9515,
      "Ġå¥½çİ©": 9516,
      "ĠéĢĹ": 9517,
      "çĹĺ": 9518,
      "æĪĪ": 9519,
      "ĠæĺĨæĺİ": 9520,
      "ĠæĹ¥æľ¬äºº": 9521,
      "ä¹Į": 9522,
      "ĠãĤ": 9523,
      "ĠçĶľçĶľ": 9524,
      "Ġrecent": 9525,
      "Ġä¸ĭæĸ¹": 9526,
      "FC": 9527,
      "åıł": 9528,
      "Ġå©Ĩ": 9529,
      "ĠåĲĳä¸Ĭ": 9530,
      "æ¸ħæ¥ļ": 9531,
      "Ġca": 9532,
      "ĠèĲĿåįľ": 9533,
      "ç¬ĭ": 9534,
      "Ġæ©Ļ": 9535,
      "æ¯«": 9536,
      "Ġåıĺå½¢": 9537,
      "å°Ķæĸ¯": 9538,
      "Ġä¸»æ¼Ķ": 9539,
      "Ġåª": 9540,
      "ĠæĿĥçĽĬ": 9541,
      "Ġçľĭä¼¼": 9542,
      "Ġä¸Ģä¸ĭåŃĲ": 9543,
      "å¢ħ": 9544,
      "Ġobject": 9545,
      "Ġmult": 9546,
      "Ġå¸Ń": 9547,
      "Ġå¯¹çĿĢ": 9548,
      "Ġæ¨¡ç³Ĭ": 9549,
      "Ġé«ĺæ¡£": 9550,
      "ĠæĹłæ¯Ķ": 9551,
      "Ġé©¬æĿ¥": 9552,
      "ĠåīĬ": 9553,
      "Ġä¸įåŃĺåľ¨": 9554,
      "Ġnec": 9555,
      "Ġçī©ä¸ļ": 9556,
      "ived": 9557,
      "ĠåĽŀæĬ¥": 9558,
      "ĠåĵĪåĵĪåĵĪ": 9559,
      "ĠåĨ°æ·ĩ": 9560,
      "æĸ¥": 9561,
      "Ġfull": 9562,
      "Ġä¹Ĳè§Ĥ": 9563,
      "Ġå¤įåĲĪ": 9564,
      "Ġå¿ĥçģµ": 9565,
      "Ġhapp": 9566,
      "Ġåį¸": 9567,
      "atives": 9568,
[...]
